{"idx2word": {"0": "$TIME$", "1": "$ATTRIBUTE$", "2": "$VALUE$", "3": "$UNKNOWN$", "4": "$DIGIT$", "5": "$EOS$", "6": "\u3001", "7": "\uff0c", "8": "\u4e3a", "9": "\u548c", "10": "\u3002", "11": "\u5206\u522b", "12": "\u7684", "13": "\u516c\u53f8", "14": "\u5360", "15": "\u622a\u81f3", "16": "\u53ca", "17": "\u53d1\u884c", "18": "\u4eba", "19": "\u8f83", "20": "\u5b9e\u73b0", "21": "\u6bd4\u4f8b", "22": "\u589e\u52a0", "23": "\u4e3b\u8981", "24": "(", "25": ")", "26": "\uff1b", "27": "\u4f59\u989d", "28": "\u53d1\u884c\u4eba", "29": "\u6bd4\u91cd", "30": "\u662f", "31": "\u8d44\u4ea7", "32": "\u589e\u957f", "33": "\u4e1a\u52a1", "34": "\u8d1f\u503a", "35": "\u603b", "36": "\u589e\u5e45", "37": "\u6709\u9650\u516c\u53f8", "38": "\u6536\u5165", "39": "\u6240", "40": "\u51cf\u5c11", "41": "\u671f\u672b", "42": "\u8be5", "43": "\u603b\u989d", "44": "\u81f4", "45": "\u5728", "46": "\u9879\u76ee", "47": "\u5927", "48": "\u8425\u4e1a", "49": "\u4e86", "50": "\u4e0b\u964d", "51": "\u91d1\u989d", "52": "\u89c4\u6a21", "53": "\u6bd4", "54": "\u539f\u56e0", "55": "\u8d8b\u52bf", "56": "\u7cfb", "57": "\u6295\u8d44", "58": "\u6d41\u52a8", "59": "\u5176\u4e2d", "60": "\u7531\u4e8e", "61": "\u4e0a\u5347", "62": "\u623f\u5730\u4ea7", "63": "\u51c0\u5229\u6da6", "64": "\u9500\u552e", "65": "\uff09", "66": "\u4e2d", "67": "\uff08", "68": "\u4ef7\u503c", "69": "\u9010\u5e74", "70": "\u5448", "71": "\u5408\u8ba1", "72": "\u5bf9", "73": "\u8d26\u9762", "74": "\u5de5\u7a0b", "75": "\u4e0e", "76": "\u5f00\u53d1", "77": "\u5f53\u671f", "78": "\u7ecf\u8425", "79": "\u5bfc\u81f4", "80": "\u5e74", "81": "\u9ad8", "82": "\u4fdd\u6301", "83": "\u7a33\u5b9a", "84": "\u4ece", "85": "\u5927\u5e45", "86": "\u5176\u4ed6", "87": "\u964d\u5e45", "88": "\u5360\u6bd4", "89": "\u5229\u6da6", "90": "\u540c\u671f", "91": "\u7b49", "92": "\u4ee5\u53ca", "93": "\u770b", "94": "\u6bcd\u516c\u53f8", "95": "\u5efa\u8bbe", "96": "\u56e0\u4e3a", "97": "\u540c\u6bd4", "98": "\u80fd\u529b", "99": "\u6c34\u5e73", "100": "\u4ea7\u54c1", "101": "\u5404", "102": "\u5747", "103": "\u5185", "104": "\u878d\u8d44", "105": "\u77ed\u671f", "106": "\u507f\u503a", "107": "\u6ce2\u52a8", "108": "\u957f\u671f", "109": "\u501f\u6b3e", "110": "\u6743\u76ca", "111": "\u4f01\u4e1a", "112": "\u4e8e", "113": "\u96c6\u56e2", "114": "\u6bd4\u8f83", "115": "\u5f71\u54cd", "116": "\u6240\u6709\u8005", "117": "\u7ba1\u7406", "118": "\u51c0\u8d44\u4ea7", "119": "\u8d44\u91d1", "120": "\u7f6e\u4e1a", "121": "\u6765", "122": "\u7ed3\u6784", "123": "\u4e0a\u5e74", "124": "\u4ee5", "125": "\u7531", "126": "\u5c06", "127": "\u677f\u5757", "128": "\u5e02\u573a", "129": "\u4e3b\u8425\u4e1a\u52a1", "130": "\u6784\u6210", "131": "\u571f\u5730", "132": "\u73b0\u91d1", "133": "\u968f\u7740", "134": "\u6301\u7eed", "135": "\u53d1\u751f", "136": "\u5ba1\u8ba1", "137": "\u5efa\u7b51", "138": "\u6709\u6240", "139": "\u90e8\u5206", "140": "\u7ecf", "141": "\u4ee5\u4e0a", "142": "\u65bd\u5de5", "143": "\u975e", "144": "\u5408\u5e76", "145": "\u591a", "146": "\u79df\u8d41", "147": "\u4e0d", "148": "\u5c0f", "149": "\u94f6\u884c", "150": "\u5b50\u516c\u53f8", "151": "\u4f46", "152": "\u4e14", "153": "\u8d39\u7528", "154": "\u76f8\u5bf9", "155": "\u53d1\u5c55", "156": "\u5f53\u5e74", "157": "\u53d8\u52a8", "158": "\u4e00", "159": "\u676d\u5dde", "160": "\u4e0a\u8ff0", "161": "\u4e09", "162": "\u5448\u73b0", "163": "\u5e94", "164": "\u540e", "165": "\u6269\u5927", "166": "\u5230\u671f", "167": "\u9879", "168": "\u80a1\u6743", "169": "\u6709", "170": "\u6001\u52bf", "171": "\u5e45\u5ea6", "172": "\u60c5\u51b5", "173": "\u884c\u4e1a", "174": "\u65b0", "175": "\u57fa\u672c", "176": "\u8d26\u6b3e", "177": "\u8fd9", "178": "\u8fbe\u5230", "179": "\u6b3e\u9879", "180": "\u4f4e", "181": "\u4ea7\u751f", "182": "\u98ce\u9669", "183": "\u8d22\u52a1", "184": "\u4e0d\u65ad", "185": "\u53d7", "186": "\u800c", "187": "\u6307\u6807", "188": "\u540c\u65f6", "189": "\u53d1", "190": "\u80a1\u4efd", "191": "\u5546\u4e1a", "192": "\u8d38\u6613", "193": "\u4e00\u5b9a", "194": "\u6d3b\u52a8", "195": "\u94c1\u8def", "196": "\u4e5f", "197": "\u603b\u4f53", "198": "\u5df2", "199": "\u5feb\u901f", "200": "\u6574\u4f53", "201": "\u8d26\u9f84", "202": "\u6295\u5165", "203": "\u62c5\u4fdd", "204": "\u5e76", "205": "\u503a\u52a1", "206": "\u8fdb\u884c", "207": "\u6bd4\u7387", "208": "\u767e\u8d27", "209": "\u8d37\u6b3e", "210": "\u8bbe\u5907", "211": "\u51c0\u989d", "212": "\u4ef7\u683c", "213": "\u8f83\u4e3a", "214": "\u751f\u4ea7", "215": "\uff1a", "216": "\u672a", "217": "\u623f\u5c4b", "218": "\u5904\u4e8e", "219": "\u53ef", "220": "\u53d8\u5316", "221": "\u8bc1\u5238", "222": "\u6210\u672c", "223": "\u7269\u4e1a", "224": "\u4e3a\u4e3b", "225": "\u5b58\u8d27", "226": "\u623f\u4ea7", "227": "\u81f3", "228": "\u6301\u6709", "229": "\u56fd\u9645", "230": "\u4ee5\u5185", "231": "\u5e94\u4ed8", "232": "\u5546\u54c1", "233": "\u6765\u6e90", "234": "\u5ba2\u6237", "235": "\u8fbe", "236": "\u5efa\u6750", "237": "\u6536", "238": "\u4f4f\u5b85", "239": "\u91d1\u878d", "240": "\u7efc\u5408", "241": "\u786e\u8ba4", "242": "\u4fdd\u5229", "243": "\u4e2d\u56fd", "244": "\u76f8\u6bd4", "245": "\u5728\u5efa", "246": "\u6700", "247": "\u76f8\u5e94", "248": "\u63d0\u4f9b", "249": "\u8f6c\u5165", "250": "\u5b8c\u5de5", "251": "\u5229\u606f", "252": "\u201d", "253": "\u63d0\u9ad8", "254": "\u76c8\u5229", "255": "\u6536\u76ca", "256": "\u63a7\u80a1", "257": "\u652f\u51fa", "258": "\u8c03\u6574", "259": "\u9152\u5e97", "260": "\u201c", "261": "\u65b0\u589e", "262": "\u7ed3\u8f6c", "263": "\u51c6\u5907", "264": "\u5feb", "265": "\u53d6\u5f97", "266": "\u76f8\u5173", "267": "\u8fd1\u5e74\u6765", "268": "\u80a1\u4e1c", "269": "\u6765\u81ea", "270": "\u589e\u957f\u7387", "271": "\u539f\u6750\u6599", "272": "\u622a\u6b62", "273": "\u5176", "274": "\u4e0a\u6d77", "275": "\u62a5\u8868", "276": "\u5efa\u4e1a", "277": "\u9884\u6536", "278": "\u524d", "279": "\u8d85\u8fc7", "280": "\u5f3a", "281": "\u590d\u5408", "282": "\u5357\u901a", "283": "\u672b", "284": "\u964d\u4f4e", "285": "\u65e0", "286": "\u6c5f\u82cf", "287": "\u5e74\u521d", "288": "\u5317\u4eac", "289": "\u4f7f\u5f97", "290": "\u5230", "291": "\u5173\u8054", "292": "\u5173\u8054\u65b9", "293": "\u4e0b\u5c5e", "294": "\u5e94\u4ed8\u6b3e", "295": "\u6bdb\u5229\u7387", "296": "\u4e94", "297": "\u5168\u90e8", "298": "\u51fa\u552e", "299": "\u6b3e", "300": "\u8ba1", "301": "\u516c\u5141", "302": "\u5f52\u5c5e", "303": "\u672c", "304": "\u503a\u5238", "305": "\u9884\u4ed8", "306": "\u53e3\u5f84", "307": "\u574f\u8d26", "308": "\u91c7\u8d2d", "309": "\u5e74\u5747", "310": "\u597d", "311": "\u8303\u56f4", "312": "\u5408\u7406", "313": "\u6309", "314": "\u5b58\u5728", "315": "\u7d2f\u8ba1", "316": "\u6839\u636e", "317": "\u8d2d\u4e70", "318": "\u4fdd\u8bc1\u91d1", "319": "\u5f62\u6210", "320": "\u59d4\u6258", "321": "\u826f\u597d", "322": "\u9010\u6e10", "323": "\u5e94\u6536\u6b3e", "324": "\u5206\u90e8", "325": "\u5927\u5bb6", "326": "\u7ed3\u7b97", "327": "\u6709\u9650", "328": "\u56e0\u6b64", "329": "\u5efa", "330": "\u9020\u6210", "331": "\u63a7\u5236", "332": "\u63d0\u5347", "333": "\u7968\u636e", "334": "\u4e0a", "335": "\u5de6\u53f3", "336": "\u670d\u52a1", "337": "\u5c5e\u4e8e", "338": "\u5546\u54c1\u623f", "339": "\u8bc4\u4f30", "340": "\u96c6\u4e2d", "341": "\u652f\u4ed8", "342": "\u4ea4\u6613", "343": "\u8d27\u5e01", "344": "\u5e73\u7a33", "345": "\u79d1\u76ee", "346": "\u4f9b", "347": "\u5e74\u5ea6", "348": "\u6279\u51c6", "349": "\u8bbe\u65bd", "350": "\u5e94\u6536", "351": "\u4e1c\u65ed", "352": "\u4e24", "353": "\u4e0b\u6ed1", "354": "\u81ea", "355": "\u56fa\u5b9a\u8d44\u4ea7", "356": "\u507f\u8fd8", "357": "\u7ea6", "358": "\u5305\u62ec", "359": "\u51c0", "360": "\u8d21\u732e", "361": "\u8d23\u4efb", "362": "\u9010\u6b65", "363": "\u671f\u95f4", "364": "\u56fd\u7f8e", "365": "\u660e\u663e", "366": "\u80fd\u6e90", "367": "\u5929\u6d25", "368": "\u5730\u4ea7", "369": "\u5904\u7f6e", "370": "\u7ef4\u6301", "371": "\u56db", "372": "\u6765\u6e90\u4e8e", "373": "\u76ee\u524d", "374": "\u6216", "375": "\u6536\u5230", "376": "\u4eba\u6bcd", "377": "\u4f7f\u7528\u6743", "378": "\u5927\u5510", "379": "\u901a\u8fc7", "380": "\u767d\u9152", "381": "\u4efd", "382": "\u529b\u5ea6", "383": "\u52a0\u5927", "384": "\u6536\u8d2d", "385": "\u653f\u5e9c", "386": "\u5b8c\u6210", "387": "\u6539\u9020", "388": "\u627f\u5151", "389": "\u6570\u636e", "390": "\u6d41\u5165", "391": "\u57fa\u7840", "392": "\u7535\u5668", "393": "\u901f\u52a8", "394": "\u7535\u529b", "395": "\u5404\u671f", "396": "\u672a\u7ecf", "397": "\u7eb3\u5165", "398": "\u63d0", "399": "\u6e56\u5357", "400": "\u4e0b", "401": "\u4ece\u800c", "402": "\u5f53", "403": "\u4fdd\u969c", "404": "\u8ba1\u91cf", "405": "\u5e73\u5747", "406": "\u6a21\u5f0f", "407": "\u6c47\u7968", "408": "\u4f4e\u4e8e", "409": "\u5357", "410": "\u6750\u6599", "411": "\u79d1\u6280", "412": "\u6761", "413": "\u54a8\u8be2", "414": "\u5206\u6790", "415": "\u5f80\u6765", "416": "\u94dd\u952d", "417": "\u53ef\u80fd", "418": "\u80fd", "419": "\u623f\u5efa", "420": "\u53d1\u7535", "421": "\u6cb3\u5357", "422": "\u300b", "423": "\u663e\u793a", "424": "\u8fc5\u901f", "425": "\u7c7b", "426": "\u56fd\u6709", "427": "\u65b9\u9762", "428": "\u57ce\u5e02", "429": "\u5355\u4f4d", "430": "\u6269\u80fd", "431": "\u4e00\u81f4", "432": "\u56fd\u5185", "433": "\u603b\u6536\u5165", "434": "\u5de5\u5177", "435": "\u300a", "436": "\u5c0f\u5e45", "437": "\u91c7\u7528", "438": "\u7528\u4e8e", "439": "\u4f17\u54c1", "440": "\u6838\u7b97", "441": "\u6d41\u51fa", "442": "\u73af\u5883", "443": "\u91cd\u5927", "444": "\u6d59\u6c5f", "445": "\u5177\u6709", "446": "\u5468\u8f6c\u7387", "447": "\u8054\u8425", "448": "\u4ea4\u4ed8", "449": "\u589e\u503c", "450": "\u5927\u91cf", "451": "\u72b6\u51b5", "452": "\u4ea7\u4e1a", "453": "\u56de", "454": "\u7a33\u6b65", "455": "\u6b63\u5e38", "456": "\u51e0", "457": "\u8f6c\u8ba9", "458": "\u56e0", "459": "\u4e4b\u4e00", "460": "\u65c5\u6e38", "461": "\u5c1a\u672a", "462": "\u5411", "463": "\u65b9\u5f0f", "464": "\u83b7\u5f97", "465": "\u7ae3\u5de5", "466": "\u4ea7", "467": "\u51fa\u73b0", "468": "\u94dd\u5408\u91d1", "469": "\u9700\u6c42", "470": "\u8fdb\u4e00\u6b65", "471": "\u7ed9", "472": "\u5f00\u59cb", "473": "\u6536\u6b3e", "474": "\u96c6\u6210", "475": "\u6210\u90fd", "476": "\u8d1f", "477": "\u516c\u4ea4", "478": "\u5546\u573a", "479": "\u5c11", "480": "\u4f7f\u7528", "481": "\u62a5\u544a", "482": "\u4eba\u6c11\u5e01", "483": "\u540d", "484": "\u8fdb\u51fa\u53e3", "485": "\u4e8f\u635f", "486": "\u4f7f", "487": "\u76f4\u63a5", "488": "\u9762\u4e34", "489": "\u6211\u56fd", "490": "\u5408\u540c", "491": "\u552e", "492": "\u56e0\u7d20", "493": "\u538b\u529b", "494": "\u6269\u5f20", "495": "\u672c\u671f", "496": "\u8fd1", "497": "\u627f\u63a5", "498": "\u5b89\u88c5", "499": "\u5408\u80a5", "500": "\u8ba1\u63d0", "501": "\u653f\u7b56", "502": "\u8fd0\u8425", "503": "\u968f", "504": "\u4e09\u5efa", "505": "\u5b8f\u6865", "506": "\u5f00\u5de5", "507": "\u8868\u660e", "508": "\u53d7\u9650", "509": "\u672a\u6765", "510": "\u6301", "511": "\u5bf9\u5916", "512": "\u4f63\u91d1", "513": "\u7565", "514": "\u98df\u4e1a", "515": "\u635f\u76ca", "516": "\u671f", "517": "\u8ba1\u5165", "518": "\u4ea4\u901a", "519": "\u6d41", "520": "\u5ea6", "521": "\u6c47\u5b8f", "522": "\u5206\u914d", "523": "\u6574\u7406", "524": "\u589e\u901f", "525": "\u6570\u91cf", "526": "\u4fe1\u6258", "527": "\u79df", "528": "\u5730\u533a", "529": "\u6295\u8d44\u6027", "530": "\u8d44\u672c", "531": "\u5e02\u653f", "532": "\u5f52\u8fd8", "533": "\u6536\u56de", "534": "\u76f8", "535": "\u65e0\u5f62", "536": "\u5165", "537": "\u51fa", "538": "\u50a8\u5907", "539": "\u5404\u9879", "540": "\u4ee5\u6765", "541": "\u4f1a", "542": "\u79df\u91d1", "543": "\u652f\u7ebf", "544": "\u4e8b\u9879", "545": "\u9ad8\u4e8e", "546": "\u5927\u4e8e", "547": "\u9700\u8981", "548": "\u51fa\u8ba9", "549": "\u9053\u8def", "550": "\u957f\u6c99", "551": "\u8865\u52a9", "552": "\u666f\u6c14", "553": "\u5e74\u672b", "554": "\u52a0\u5de5", "555": "\u4ea7\u80fd", "556": "\u7269\u6d41", "557": "\u5e7f\u573a", "558": "\u663e\u8457", "559": "\u5e7f\u5dde", "560": "\u6280\u672f", "561": "\u53f7", "562": "\u867d\u7136", "563": "\u65b0\u578b", "564": "\u5ba1\u8bae", "565": "\u507f\u4ed8", "566": "\u5168\u56fd", "567": "\u5339\u914d", "568": "\u4ea7\u91cf", "569": "\u635f\u5931", "570": "\u7a0b\u5ea6", "571": "\u8fd1\u5e74", "572": "\u624b\u7eed\u8d39", "573": "\u7164\u70ad", "574": "\u4e0d\u5229", "575": "\u7ecf\u6d4e", "576": "\u7535\u5b50", "577": "\u534f\u8bae", "578": "\u7406\u8d22", "579": "\u7ee7\u7eed", "580": "\u5e7f\u4e1c", "581": "\u7b79\u8d44", "582": "\u52a0\u5f3a", "583": "\u4e2a", "584": "\u4f5c\u4e3a", "585": "\u989d", "586": "\u6cd5", "587": "\u7ea2\u661f", "588": "\u4e0a\u4e00\u5e74", "589": "\u96f6\u552e", "590": "\u8d44\u6e90", "591": "\u673a\u6784", "592": "\u5408\u4f19", "593": "\u665f\u664f", "594": "\u6c34\u6ce5", "595": "\u4e4b", "596": "\u8d2d\u9500", "597": "\u6500\u679d\u82b1\u5e02", "598": "\u4e07\u8054", "599": "\u5546\u8d38", "600": "\u5f00\u5c55", "601": "\u5b89\u5409", "602": "\u9999\u6e2f", "603": "\u56de\u843d", "604": "\u72b6\u6001", "605": "\u57fa\u91d1", "606": "\u80a1\u7968", "607": "\u603b\u8ba1", "608": "\u6c88\u9633", "609": "\u6240\u5f97\u7a0e", "610": "\u4fdd\u7a0e\u533a", "611": "\u4e0a\u5e02", "612": "\u53cd\u6620", "613": "\u963f", "614": "\u4e3b\u8425", "615": "\u8f6c", "616": "\u5e26\u6765", "617": "\u94a6", "618": "\u53ca\u5176", "619": "\u4ecd", "620": "\u5b9e\u9645", "621": "\u6bdb\u5229\u6da6", "622": "\u4eba\u5de5", "623": "\u533b\u7597", "624": "\u7164\u5316\u5de5", "625": "\u73bb\u7483", "626": "\u91d1\u5c5e", "627": "\u65b9\u6848", "628": "\u6d77\u5357", "629": "\u5929\u5c71", "630": "\u95e8\u5e97", "631": "\u652f\u6301", "632": "\u5efa\u7b51\u7269", "633": "\u7f51\u70b9", "634": "\u4e00\u76f4", "635": "\u6d41\u91cf", "636": "\u51fa\u79df", "637": "\u5730", "638": "\u901f\u5ea6", "639": "\u6d41\u52a8\u6027", "640": "\u52b3\u52a1", "641": "\u4fe1\u7528", "642": "\u54c1\u724c", "643": "\u5de5\u827a", "644": "\u4ee5\u4e0b", "645": "\u4e1a\u52a1\u91cf", "646": "\u51b3\u8bae", "647": "\u4e0a\u534a\u5e74", "648": "\u5168", "649": "\u5047\u53d1", "650": "\u5468\u671f", "651": "\u5bf9\u5e94", "652": "\u53cb\u963f", "653": "\u673a\u5668", "654": "\u7b56\u7565", "655": "\u6ca1\u6709", "656": "\u4e1a\u7ee9", "657": "\u504f", "658": "\u7edd\u5bf9", "659": "\u90fd", "660": "\u957f", "661": "\u5468\u8f6c", "662": "\u914d\u5957", "663": "\u5b58\u6b3e", "664": "\u968f\u4e4b", "665": "\u6838\u5fc3", "666": "\u6a80\u6eaa", "667": "\u534e\u5357", "668": "\u963f\u6ce2\u7f57", "669": "\u8865\u5145", "670": "\u4e0a\u6da8", "671": "\u5bf9\u4e8e", "672": "\u51c0\u503c", "673": "\u8fde\u4e91\u6e2f", "674": "\u5316\u7ea4", "675": "\u672c\u6b21", "676": "\u4e0b\u8dcc", "677": "\u78a7\u6842\u56ed", "678": "\u5c0f\u989d", "679": "\u8d44\u4ea7\u8d1f\u503a\u7387", "680": "\u91cd\u8981", "681": "\u4e0b\u6e38", "682": "\u5408\u8425", "683": "\u4e0a\u671f", "684": "\u8d2d\u5165", "685": "\u7ebf", "686": "\u65b0\u7586", "687": "\u81ea\u8eab", "688": "\u56de\u6536", "689": "\u7a81\u51fa", "690": "\u6545", "691": "\u5b9e\u65bd", "692": "\u5bb6\u5c45", "693": "\u94a6\u5dde", "694": "\u5b9a\u5411", "695": "\u5965\u7279\u83b1\u65af", "696": "\u4e2d\u57fa\u534e", "697": "\u8089\u5236\u54c1", "698": "\u8425\u4e1a\u52a1", "699": "\u5317\u6d77", "700": "\u4fe1\u53f7", "701": "\u52a0\u6743", "702": "\u6e2f", "703": "\u5bb6\u5177", "704": "\u6c5f\u82cf\u7701", "705": "\u77ff", "706": "\u56de\u8d2d", "707": "\u53d6\u8d39", "708": "\u6e56\u5317", "709": "\u5e93\u5b58", "710": "\u5408\u91d1", "711": "\u5bb6\u7535", "712": "\u4ed8\u6b3e", "713": "\u6ce8\u5165", "714": "\u94c1\u5c71", "715": "\u9500\u91cf", "716": "\u81ea\u8425", "717": "\u5149\u7535", "718": "\u8d28\u62bc", "719": "\u7ec4\u6210\u90e8\u5206", "720": "\u9884\u552e", "721": "\u5173\u4e8e", "722": "\u5236\u9020", "723": "\u5f20\u5bb6\u53e3", "724": "\u8def\u8f68", "725": "\u77ff\u4e1a", "726": "\u82e5", "727": "\u9644\u5c5e", "728": "\u952d", "729": "\u9012\u5ef6", "730": "\u4ea6", "731": "\u751f\u9c9c", "732": "\u7279\u70b9", "733": "\u5927\u6984\u576a", "734": "\u96c6\u56e2\u516c\u53f8", "735": "\u51cf\u5e45", "736": "\u5e76\u4e14", "737": "\u56fd\u5bb6", "738": "\u589e\u5f3a", "739": "\u6536\u5165\u4e3a", "740": "\u4eba\u5458", "741": "\u56de\u7b3c", "742": "\u516c\u5171", "743": "\u84b8\u6c7d", "744": "\u589e\u591a", "745": "\u73af\u7403", "746": "\u6bdb\u5229", "747": "\u5229\u7528", "748": "\u519c\u4e1a", "749": "\u56db\u671f", "750": "\u5de5\u7a0b\u6b3e", "751": "\u6682", "752": "\u5206\u7c7b", "753": "\u4f18\u52bf", "754": "\u8dcc\u4ef7", "755": "\u6db2\u6001", "756": "\u6cf8\u5dde", "757": "\u7b7e\u8ba2", "758": "\u4ee3\u8868", "759": "\u6536\u53d6", "760": "\u5353\u8d8a", "761": "\u54a8\u8be2\u8d39", "762": "[", "763": "\u589e\u8d44", "764": "\u4ec5", "765": "\u590d\u5408\u6750\u6599", "766": "\u5b81\u590f", "767": "\u503c", "768": "\u5bb6", "769": "\u676d\u5dde\u5e02", "770": "]", "771": "\u6298\u65e7", "772": "\u4eab\u6709", "773": "\u5de5\u4e1a", "774": "\u5c4b", "775": "\u7ecf\u5e38\u6027", "776": "\u76f8\u7b26", "777": "\u5de5\u8d44", "778": "\u671f\u521d", "779": "\u5317\u4eac\u5e02", "780": "\u62c6\u501f", "781": "\u80a1", "782": "\u4e2d\u5fc3", "783": "\u5317", "784": "\u8f7b\u8d28", "785": "\u7ecf\u8425\u6027", "786": "\u5efa\u6210", "787": "\u7ea4\u7ef4", "788": "\u5b89\u5fbd\u7701", "789": "\u56de\u5347", "790": "\u7f51\u7edc", "791": "\u8868\u73b0", "792": "\u77ff\u4ea7", "793": "\u542b", "794": "\u4fe1\u606f", "795": "\u6263\u9664", "796": "\u5927\u578b", "797": "\u5408\u4f5c", "798": "\u8fdc\u6d32", "799": "\u8bbe\u7acb", "800": "\u5728\u4e8e", "801": "\u94a2\u94c1", "802": "\u53d8", "803": "\u4e00\u65b9\u9762", "804": "\u5e26\u52a8", "805": "\u9686\u946b", "806": "\u53ca\u65f6", "807": "\u59d4\u8d37", "808": "\u59cb\u7ec8", "809": "\u6b21", "810": "\u670d\u52a1\u8d39", "811": "\u751f\u4ea7\u7ebf", "812": "\u81f4\u4f7f", "813": "\u95f4", "814": "\u52df\u96c6", "815": "\u8d28\u91cf", "816": "\u884c\u653f", "817": "\u589e\u5927", "818": "\u8d1f\u8d23", "819": "\u867d", "820": "\u53d8\u73b0", "821": "\u53cb\u8c0a", "822": "\u5206\u7ea2", "823": "\u6b64\u5916", "824": "\u987b", "825": "\u4efd\u989d", "826": "\u661f\u7ea7", "827": "\u4f9d\u6cd5", "828": "\u7269\u6d41\u56ed", "829": "\u9752\u5c9b", "830": "\u4e09\u5ce1", "831": "\u57fa\u5730", "832": "\u7802\u77f3", "833": "\u5965\u6797\u5339\u514b", "834": "\u8fdb\u800c", "835": "\u5e38\u5fb7", "836": "\u53cb", "837": "\u8bbe\u8ba1", "838": "\u4f9b\u5e94\u5546", "839": "\u4f53\u73b0", "840": "\u6c34\u5229\u5de5\u7a0b", "841": "\u53d7\u5230", "842": "\u5b9d\u77f3", "843": "\u63a8\u5e7f", "844": "\u9000\u56de", "845": "\u88c5\u4fee", "846": "\u91c7\u77ff\u6743", "847": "\u51cf", "848": "\u4e25\u683c", "849": "\u88ab", "850": "\u5e7f\u5dde\u5e02", "851": "\u79cd", "852": "\u8ba1\u5212", "853": "\u8fd8", "854": "\u56de\u6b3e", "855": "\u4e4b\u524d", "856": "\u5317\u65b0", "857": "\u5265\u79bb", "858": "\u73e0\u6d77", "859": "\u7b26\u5408", "860": "\u7cfb\u5217", "861": "\u76f8\u7ee7", "862": "\u5730\u5904", "863": "\u957f\u5174", "864": "\u81ea\u6301", "865": "\u516c\u5f00", "866": "\u5982\u679c", "867": "\u5e7f\u544a", "868": "\u65f6", "869": "\u6295\u4ea7", "870": "\u8fc7\u7a0b", "871": "\u9002\u4e2d", "872": "\u8981\u6c42", "873": "\u4f46\u662f", "874": "\u6709\u6548", "875": "\u9700", "876": "\u63a8\u8fdb", "877": "\u51cf\u503c", "878": "\u6301\u5e73", "879": "\u5916", "880": "\u5c65\u7ea6", "881": "\u53e6\u4e00\u65b9\u9762", "882": "\u5177\u4f53", "883": "\u4f1a\u8ba1", "884": "\u6768\u658c", "885": "\u65e5\u5e38", "886": "\u4e13\u9879", "887": "\u56db\u5ddd", "888": "\u5982\u4e0b", "889": "\u5927\u90e8\u5206", "890": "\u5982", "891": "\u70ed\u7535", "892": "\u5df2\u7ecf", "893": "\u51cf\u5c0f", "894": "\u516c\u56ed", "895": "\u5de5\u7a0b\u91cf", "896": "\u4e1a\u4e3b", "897": "\u540e\u7eed", "898": "\u62b5\u62bc", "899": "\u6c27\u5316\u94dd", "900": "\u4e8c", "901": "\u671f\u9650", "902": "\u5dee\u5f02", "903": "\u5f15\u8d77", "904": "1-2", "905": "\u524d\u671f", "906": "\u7845\u9530", "907": "\u5f62\u5f0f", "908": "\u6ee8\u5dde", "909": "\u90e8\u95e8", "910": "\u4e16\u7eaa", "911": "\u5ba1\u6838", "912": "\u4e3a\u4e86", "913": "\u53d7\u76ca", "914": "\u5e7f\u6c38", "915": "\u5360\u636e", "916": "\u57ce\u9645", "917": "\u6539\u53d8", "918": "\u6807\u7684", "919": "\u4e0d\u540c", "920": "\u4fe1\u7528\u8bc1", "921": "\u6709\u5173", "922": "\u8d44\u672c\u5316", "923": "\u4e94\u7cae\u6db2", "924": "-", "925": "\u6210\u529f", "926": "\u7ba1\u7406\u8d39", "927": "\u989d\u5ea6", "928": "\u6bb5", "929": "\u79ef\u7d2f", "930": "\u652f\u914d", "931": "\u5e7f", "932": "\u5473\u7cbe", "933": "\u503a", "934": "\u89e3\u51b3", "935": "\u6807\u51c6", "936": "\u5408\u80a5\u5e02", "937": "\u91ca\u653e", "938": "\u6539\u5584", "939": "\u901a\u77e5", "940": "\u94a6\u9632", "941": "\u5e97", "942": "\u505a\u51fa", "943": "\u5b9e\u4e1a", "944": "\u79df\u8d41\u6b3e", "945": "\u627f\u5efa", "946": "\u8001\u7a96", "947": "\u91cd\u5e86", "948": "\u6263\u9664\u975e", "949": "\u77f3\u5bb6\u5e84", "950": "\u67f3", "951": "\u5355\u4e00", "952": "\u5efa\u5c4b", "953": "\u5168\u5e74", "954": "\u5c0f\u8d37", "955": "\u4e3b\u5bfc", "956": "\u62df", "957": "\u4ece\u4e8b", "958": "\u5173\u8054\u4eba", "959": "\u6ce8\u518c", "960": "\u7a3b\u82b1", "961": "\u94a2\u8d38", "962": "\u821c\u5929", "963": "\u6309\u7167", "964": "\u8d56\u6c28\u9178", "965": "\u7a7a\u95f4", "966": "\u500d\u6570", "967": "\u822a\u7a7a", "968": "\u5174\u534e", "969": "\u6761\u4ef6", "970": "\u65b9", "971": "\u9762\u79ef", "972": "\u6da8\u5e45", "973": "\u8bf4\u660e", "974": "\u6625\u5929", "975": "\u6240\u6709", "976": "\u6162", "977": "\u4ee3\u5efa", "978": "\u8463\u4e8b\u4f1a", "979": "\u6d53\u9999\u578b", "980": "\u8d2d\u623f", "981": "\u89c4\u5b9a", "982": "\u7ecf\u7eaa", "983": "\u4ecd\u7136", "984": "\u590d\u5408\u80a5", "985": "\u786e\u5b9a", "986": "\u63d0\u53d6", "987": "\u7535\u5382", "988": "\u65e0\u6cd5", "989": "\u5757", "990": "\u9a7b\u9a6c\u5e97", "991": "\u519c\u6751", "992": "\u7a7a\u8c03", "993": "\u8d22\u653f", "994": "\u884c\u4eba", "995": "\u5f53\u524d", "996": "\u521d\u59cb", "997": "\u897f", "998": "\u82b1\u57ce", "999": "\u78b3", "1000": "\u4e0d\u8db3", "1001": "\u5165\u5e93", "1002": "\u5927\u5b97", "1003": "\u82b1\u56ed", "1004": "\u82cf\u6c28\u9178", "1005": "\u5e76\u8d2d", "1006": "\u4f20\u7edf", "1007": "\u8fbe\u6210", "1008": "\u5c3d\u7ba1", "1009": "\u804c\u5de5", "1010": "\u8fdb\u5ea6", "1011": "\u4f4d", "1012": "\u6b64", "1013": "\u5f97\u76ca", "1014": "\u81ea\u7528", "1015": "\u63a7\u5236\u6743", "1016": "\u538b\u7f29", "1017": "\u9884\u7b97", "1018": "\u8463\u4e8b", "1019": "\u94dd", "1020": "\u503a\u6743", "1021": "\u79ef\u6781", "1022": "\u5f00\u62d3", "1023": "\u6b63", "1024": "\u5373", "1025": "\u6cb3\u5317", "1026": "\u5ba3\u4f20\u8d39", "1027": "\u8d1f\u503c", "1028": "\u4e34\u6d77\u5e02", "1029": "\u5b8f\u89c2", "1030": "\u800c\u8a00", "1031": "\u91d1\u9f0e", "1032": "\u7a0e\u8d39", "1033": "\u79cd\u4e1a", "1034": "\u91cd", "1035": "\u7ed3", "1036": "\u4f0a\u54c1", "1037": "\u672c\u90e8", "1038": "\u749f\u71a0", "1039": "\u5c45\u6c11", "1040": "\u51b0\u7bb1", "1041": "\u7ae0\u7a0b", "1042": "\u5171\u8ba1", "1043": "\u9886\u57df", "1044": "\u4fe1\u9633", "1045": "\u8def\u7f51", "1046": "\u5404\u7c7b", "1047": "\u8d70\u52bf", "1048": "\u4e00\u7ea7", "1049": "\u5b8f\u6cf0", "1050": "\u9526\u5dde", "1051": "\u7164\u5316", "1052": "\u533a", "1053": "\u6885\u5c71", "1054": "\u4fdd\u7a0e", "1055": "\u6052\u4e1a", "1056": "\u6df1", "1057": "\u5929", "1058": "\u5e74\u5316", "1059": "\u4f5c", "1060": "\u8d70", "1061": "\u6d88\u5316", "1062": "\u529b\u4e89", "1063": "\u7f6e\u6362", "1064": "\u964d", "1065": "\u6d17\u8863\u673a", "1066": "\u91c7\u77ff", "1067": "\u957f\u6c99\u5e02", "1068": "\u4ff1", "1069": "\u5546\u94fa", "1070": "\u6279\u590d", "1071": "\u68ee\u6797", "1072": "\u6d88\u8d39\u7a0e", "1073": "\u7a00\u7f3a", "1074": "\u7ecf\u8d38", "1075": "\u957f\u6625", "1076": "\u627f\u5305", "1077": "\u534a\u5c9b", "1078": "\u4e00\u822c", "1079": "\u827a\u672f\u5bb6", "1080": "\u603b\u7ecf\u7406", "1081": "\u7845\u8c37", "1082": "\u5b8c\u5168", "1083": "\u540c\u610f", "1084": "\u6210\u7acb", "1085": "\u57ce\u5efa", "1086": "\u6b63\u5728", "1087": "\u6d4e\u6e90", "1088": "\u63d0\u4ea4", "1089": "\u5178\u578b", "1090": "\u51fa\u8d44", "1091": "\u5176\u6b21", "1092": "\u5927\u89c4\u6a21", "1093": "\u5927\u5e45\u5ea6", "1094": "\u5dee\u5f02\u5316", "1095": "\u5c0f\u8ba1", "1096": "\u653e\u7f13", "1097": "\u56fd\u52a1\u9662", "1098": "\u56e0\u800c", "1099": "\u81ea\u6709", "1100": "\u5929\u660e", "1101": "\u4e2d\u822a", "1102": "\u534e\u4e1c", "1103": "\u77ff\u4ea7\u54c1", "1104": "\u9ad8\u8fbe", "1105": "\u9633\u4fe1", "1106": "\u81ea\u52a8\u5316", "1107": "\u5c71\u6d77", "1108": "\u5254\u9664", "1109": "\u793e\u4f1a", "1110": "\u8425\u4e1a\u7a0e", "1111": "\u751f\u957f", "1112": "\u7261\u4e39\u6c5f", "1113": "\u8d2d\u7f6e", "1114": "\u56fd\u4fe1", "1115": "\u6548\u7387", "1116": "\u8d2d", "1117": "\u4f9b\u8d27\u91cf", "1118": "\u5386\u53f2", "1119": "\u6682\u65f6\u6027", "1120": "\u507f", "1121": "\u7531\u6b64", "1122": "\u62b5", "1123": "\u9646\u7eed", "1124": "\u5357\u9633", "1125": "\u666f\u533a", "1126": "\u671f\u8d27", "1127": "\u6587\u5316", "1128": "\u6539\u826f", "1129": "\u91cd\u70b9", "1130": "\u6d41\u52a8\u8d44\u91d1", "1131": "\u5229\u5b89", "1132": "\u4e94\u4e00", "1133": "\u4e30\u4e50", "1134": "\u6e2f\u533a", "1135": "\u6b66\u6c49", "1136": "\u4ea4\u6613\u65e5", "1137": "\u4e4b\u548c", "1138": "\u670d\u52a1\u4e1a", "1139": "\u5e94\u5f53", "1140": "\u5904\u7406", "1141": "\u8003\u8651", "1142": "\u6e20\u9053", "1143": "\u6c34\u69ad", "1144": "\u81ea\u5907", "1145": "\u5145\u8db3", "1146": "\u9884\u5236\u54c1", "1147": "\u6696", "1148": "\u80fd\u591f", "1149": "\u624b", "1150": "\u5206\u516c\u53f8", "1151": "\u4eba\u6c11\u653f\u5e9c", "1152": "\u91cf", "1153": "\u6cbe\u5316", "1154": "\u8fdb\u5165", "1155": "\u5bb6\u6da6", "1156": "\u968f\u65f6", "1157": "\u7f13\u6162", "1158": "\u540c\u884c\u4e1a", "1159": "\u8d26", "1160": "\u745e\u8d1d\u5361", "1161": "\u5382\u623f", "1162": "\u8f68\u9053", "1163": "\u589e\u503c\u7a0e", "1164": "\u5269\u4f59", "1165": "\u4f9d\u8d56\u6027", "1166": "\u516c\u79ef", "1167": "\u6bdb\u7eba\u7ec7", "1168": "\u7f3a\u53e3", "1169": "\u5171", "1170": "\u6c34\u4ea7", "1171": "\u8054\u6295", "1172": "\u8d27\u6b3e", "1173": "\u51c6\u5219", "1174": "\u519c\u4ea7\u54c1", "1175": "\u8d1f\u6570", "1176": "\u652f", "1177": "\u51fa\u5177", "1178": "\u5357\u8f66", "1179": "\u6d77\u95e8\u5e02", "1180": "\u7535\u7164", "1181": "\u88ab\u62c5\u4fdd\u65b9", "1182": "\u5b58\u91cf", "1183": "\u59d4\u6258\u65b9", "1184": "\u851a\u57ce", "1185": "\u65ed\u9f99", "1186": "\u7740", "1187": "\u9530\u94c1", "1188": "\u5145\u88d5", "1189": "\u6cd5\u4eba", "1190": "\u4e0d\u826f", "1191": "\u5219", "1192": "\u4e0a\u6e38", "1193": "\u7279\u5f81", "1194": "\u7ba1\u7f51", "1195": "\u53bb\u5e74", "1196": "\u7535\u7f51", "1197": "\u9002\u65f6", "1198": "\u6cd5\u8ba1\u63d0", "1199": "\u9996", "1200": "\u56fd\u5916", "1201": "\u4ea4", "1202": "\u7f8e\u6797", "1203": "\u4eba\u5747", "1204": "\u51a0\u540d", "1205": "\u533a\u57df", "1206": "\u7247\u533a", "1207": "\u5f97\u5230", "1208": "\u94a2\u6750", "1209": "\u5f20\u6c5f", "1210": "\u8282\u70b9", "1211": "\u8986\u76d6", "1212": "\u6743\u76ca\u6cd5", "1213": "\u534e\u5b9d", "1214": "\u81ea\u7136", "1215": "\u6210", "1216": "\u975e\u516c\u5f00", "1217": "\u5de5\u4e1a\u56ed", "1218": "\u4ee3\u507f\u7387", "1219": "EBITDA", "1220": "\u4fe1\u4fdd", "1221": "\u4e34\u4e9a", "1222": "\u8868\u51b3\u6743", "1223": "\u8425\u9500", "1224": "\u9664\u5916", "1225": "2-3", "1226": "\u65ed\u53cc", "1227": "\u914d\u4ef6", "1228": "\u5b89\u5fbd", "1229": "\u673a\u68b0\u8d39", "1230": "\u62d3\u5c55", "1231": "\u4e2d\u95f4", "1232": "\u6d4b\u8bd5", "1233": "\u706b\u7535", "1234": "\u666f\u6c34\u6e7e", "1235": "\u4e0b\u884c", "1236": "\u6309\u63ed", "1237": "\u5546\u4e18", "1238": "\u534a", "1239": "\u82b1\u5385", "1240": "\u5b8c\u6bd5", "1241": "\u878d\u65ed", "1242": "\u5b81\u6ce2", "1243": "\u4e8b\u4e1a", "1244": "\u4f4f\u623f", "1245": "\u6295", "1246": "\u7edd\u5927\u90e8\u5206", "1247": "\u8d22\u653f\u5c40", "1248": "\u4e2d\u5317", "1249": "\u7126\u70ad", "1250": "\u65ed\u5510", "1251": "\u8425\u53e3", "1252": "\u81ea\u6765\u6c34", "1253": "\u4f01\u53d1", "1254": "\u4f9b\u6c34", "1255": "\u6cb3\u6d77", "1256": "\u591a\u5143\u5316", "1257": "\u72ec\u7acb", "1258": "\u7f5a\u6ca1", "1259": "\u4e2d\u91d1", "1260": "\u59b9\u5b50", "1261": "\u8d77", "1262": "\u7b2c\u4e8c", "1263": "\u5168\u9762", "1264": "\u8be5\u9879", "1265": "\u9633\u6781", "1266": "\u96be\u4ee5", "1267": "\u6539\u5236", "1268": "\u5b89\u9632", "1269": "\u897f\u85cf", "1270": "\u8d44\u672c\u91d1", "1271": "\u53a6\u95e8", "1272": "\u6ee8\u5dde\u653f\u901a", "1273": "\u623f\u5730\u4ea7\u4e1a", "1274": "\u7ec4\u6210", "1275": "\u8d8b\u4e8e", "1276": "\u4eba\u4e3a", "1277": "\u52a0\u4e4b", "1278": "\u7965\u9a70", "1279": "\u518d", "1280": "\u9759\u82d1", "1281": "\u4e50\u94ed", "1282": "\u5b8c\u5584", "1283": "\u7528\u5730", "1284": "\u5929\u7136\u6c14", "1285": "\u884c\u4e3a", "1286": "\u57ce\u9547", "1287": "\u8fd8\u6b3e", "1288": "\u76f8\u540c", "1289": "\u8d2d\u7269", "1290": "\u6548\u5e94", "1291": "\u672c\u91d1", "1292": "\u8305\u53f0", "1293": "\u7b79\u5efa", "1294": "\u6cf0\u8f76\u65af", "1295": "\u8c03\u63a7", "1296": "\u82d7\u6728", "1297": "\u8054\u5408", "1298": "\u4e1c", "1299": "\u4eba\u6b21", "1300": "\u4fca\u6c38", "1301": "\u53d8\u66f4", "1302": "\u6539\u9769", "1303": "\u666f\u79be", "1304": "\u51fa\u79df\u8f66", "1305": "\u6b64\u7c7b", "1306": "\u6728\u4e1a", "1307": "\u4ee5\u5f80", "1308": "\u56de\u62a5", "1309": "\u91c7\u8d2d\u91cf", "1310": "\u5357\u5cb8", "1311": "\u672a\u80fd", "1312": "\u540c", "1313": "\u5f00\u5177", "1314": "\u73af\u4fdd", "1315": "\u6cd5\u5f8b", "1316": "\u4e0a\u7f51", "1317": "\u8f66\u8f86", "1318": "\u5c11\u91cf", "1319": "\u6760\u6746", "1320": "\u65d7", "1321": "\u5efa\u9716", "1322": "\u4e3b\u4f53", "1323": "\u4e0b\u53d1", "1324": "\u534e\u94f6", "1325": "\u5bc6\u5207", "1326": "\u9886\u5148", "1327": "\u4e3d\u6c34\u6e7e", "1328": "\u7279\u6027", "1329": "\u4e0d\u786e\u5b9a\u6027", "1330": "\u6210\u4e3a", "1331": "\u4f17\u5408", "1332": "\u51b2\u51fb", "1333": "\u8fde\u9501", "1334": "\u6dee\u5b89", "1335": "\u5185\u8499", "1336": "\u65e0\u507f", "1337": "\u4e2d\u7b51\u5929", "1338": "\u8282\u80fd", "1339": "\u5212\u5206", "1340": "\u8d1f\u503a\u7387", "1341": "\u5168\u989d", "1342": "\u7eb8", "1343": "\u975e\u7ecf\u8425\u6027", "1344": "\u7a33\u4e2d\u6709\u5347", "1345": "\u7ba1\u63a7", "1346": "\u4e27\u5931", "1347": "\u65b0\u6c82\u5e02", "1348": "\u52bf\u5934", "1349": "\u7a81\u7834", "1350": "\u878d\u521b", "1351": "DA", "1352": "\u8d6b\u7136", "1353": "\u5e02\u503c", "1354": "\u54c1\u79cd", "1355": "\u5409\u6797", "1356": "\u98df\u54c1", "1357": "\u51b3\u5b9a", "1358": "\u53d1\u7968", "1359": "\u957f\u8d3a", "1360": "\u56fd\u8d38", "1361": "\u5f00\u91c7", "1362": "\u94dd\u6392", "1363": "\u5efa\u6613\u901a", "1364": "\u5de5\u4f5c", "1365": "\u5927\u8fde", "1366": "\u91c7\u53d6", "1367": "\u73b0\u72b6", "1368": "\u5927\u4f1a", "1369": "\u9ad8\u4f4d", "1370": "\u5148\u540e", "1371": "\u5ef6\u548c", "1372": "\u62d3\u5bbd", "1373": "\u697c\u76d8", "1374": "\u7edd\u5927\u591a\u6570", "1375": "\u5916\u77ff", "1376": "\u7ed3\u7b97\u91cf", "1377": "\u539f\u5219", "1378": "\u6606", "1379": "\u5de5\u8d38", "1380": "\u65b0\u95fb\u7eb8", "1381": "\u6388\u4fe1", "1382": "\u7535\u89e3\u94dd", "1383": "\u6fc0\u70c8", "1384": "\u5229", "1385": "\u503a\u52a1\u4eba", "1386": "\u8865\u8d34", "1387": "\u79df\u8d41\u8d39", "1388": "\u8d1f\u9762", "1389": "\u53d1\u653e", "1390": "\u8ba1\u7a0e", "1391": "\u4e34\u65f6", "1392": "\u901a\u8fbd", "1393": "\u4e2d\u7ecf", "1394": "\u666e\u5143", "1395": "\u9a6c\u9675\u5c71", "1396": "\u767e\u8d27\u677f\u5757", "1397": "\u6539", "1398": "\u4e4b\u95f4", "1399": "\u6ce8", "1400": "\u5428", "1401": "\u5f53\u5730", "1402": "\u6c38\u57ce", "1403": "\u533b\u9662", "1404": "\u6ee8\u5317", "1405": "\u73b0\u4ee3", "1406": "\u4e1c\u797a", "1407": "\u6b20\u6b3e", "1408": "\u4e8b\u52a1\u6240", "1409": "\u9ad8\u901f", "1410": "\u6d41\u5165\u91cf", "1411": "\u5f15\u53d1", "1412": "\u5145\u6c9b", "1413": "\u76d1\u7763", "1414": "\u5c11\u6570", "1415": "\u8425", "1416": "\u63d0\u574f\u8d26", "1417": "\u7c7b\u578b", "1418": "\u526f\u4ea7\u54c1", "1419": "\u901a\u8baf", "1420": "\u9e3f\u5b89", "1421": "\u83b7\u53d6", "1422": "\u5929\u5e9c", "1423": "\u4e4b\u5185", "1424": "\u534e\u76db", "1425": "\u5546\u8a89", "1426": "\u9ed1\u9f99\u6c5f", "1427": "\u5f88", "1428": "\u7ade\u4e89", "1429": "\u4fdd\u8bc1", "1430": "\u5dee", "1431": "\u589e", "1432": "\u6ee1\u8db3", "1433": "\u5b9c\u660c", "1434": "\u7f34\u7eb3", "1435": "\u829c\u6e56", "1436": "\u65b0\u534e\u901a", "1437": "\u7535\u91cf", "1438": "\u516c\u5bd3", "1439": "\u667a\u7075", "1440": "\u5f31", "1441": "\u4e3b", "1442": "\u51cf\u514d", "1443": "\u6b65\u4f10", "1444": "\u7ec4\u5408", "1445": "\u8d85\u5e02", "1446": "GDP", "1447": "\u7ed3\u76d8", "1448": "\u6bcf\u5e74", "1449": "\u5357\u4eac", "1450": "\u8ffd\u6eaf", "1451": "\u7f16\u53f7", "1452": "\u575a\u6301", "1453": "\u65ed\u901a", "1454": "\u5229\u7387", "1455": "\u4e50\u9f84", "1456": "\u4ea4\u623f", "1457": "\u65f6\u70b9", "1458": "\u88c5\u9970\u57ce", "1459": "\u8f6f\u4ef6", "1460": "\u7cfb\u7edf", "1461": "\u5f3a\u52b2", "1462": "\u534e\u5b87", "1463": "\u5ba2\u623f", "1464": "\u6700\u4f4e", "1465": "\u4e3b\u52a8", "1466": "\u529e\u516c\u697c", "1467": "\u6613", "1468": "\u542f\u7b56", "1469": "\u521b", "1470": "\u53d7\u8d60", "1471": "\u516c\u5efa\u7c7b", "1472": "\u5408\u8ba1\u8fbe", "1473": "\u5355\u7eaf", "1474": "\u80a1\u4e1c\u4f1a", "1475": "\u5c1a", "1476": "\u8bb8\u660c", "1477": "\u53cc\u6b23", "1478": "\u76ee\u6807", "1479": "\u4e5d\u60a6\u5ef7", "1480": "\u9999", "1481": "\u534f\u9f0e", "1482": "\u53d1\u7535\u91cf", "1483": "\u534f\u7fa4", "1484": "\u975e\u5e38", "1485": "\u6df1\u5733", "1486": "\u534e\u5b87\u57ce", "1487": "\u62db\u6295\u6807", "1488": "\u534e\u5e9c", "1489": "\u5357\u65b9", "1490": "\u5bf9\u5185", "1491": "\u8d8b", "1492": "\u6218\u7565", "1493": "\u4e49\u52a1", "1494": "\u5e38", "1495": "\u5408\u4f5c\u65b9", "1496": "\u7a0e\u91d1", "1497": "\u56db\u5ddd\u7701", "1498": "\u6d77\u95e8", "1499": "\u5151\u4ed8", "1500": "\u592a\u6e56", "1501": "\u5b59", "1502": "\u4e09\u8005", "1503": "\u85aa\u916c", "1504": "\u6d77\u94b0", "1505": "\u719f", "1506": "\u53e6\u5916", "1507": "\u6536\u76ca\u7387", "1508": "\u4ee3\u7406\u8d39", "1509": "\u4e2d\u592e\u653f\u5e9c", "1510": "\u5efa\u8bbe\u671f", "1511": "\u70ad\u9ed1", "1512": "\u7b2c\u4e00", "1513": "\u7b2c\u4e09", "1514": "\u4fdd\u7ecf", "1515": "\u6216\u8005", "1516": "\u4f9d\u8d56", "1517": "\u5bf9\u7b49", "1518": "\u8f6c\u4e3a", "1519": "\u8fdd\u7ea6", "1520": "\u5927\u529b", "1521": "\u6b63\u5f0f", "1522": "\u573a\u6240", "1523": "\u9700\u6c42\u91cf", "1524": "\u9646\u5bb6\u5634", "1525": "\u53cc\u91cd", "1526": "\u5bc6\u96c6\u578b", "1527": "\u4f17\u54c1\u751f\u9c9c", "1528": "\u7ec6\u5206", "1529": "\u4e0e\u5176", "1530": "\u6240\u5728", "1531": "\u901a\u5e38", "1532": "\u77e5\u540d\u5ea6", "1533": "\u8425\u8fd0", "1534": "\u5206\u914d\u6743", "1535": "\u7b7e\u7ea6", "1536": "\u8fde\u5e74", "1537": "\u9e3f\u6d69", "1538": "\u57fa\u77f3", "1539": "\u6cd5\u5b9a", "1540": "\u7126\u4f5c", "1541": "\u540d\u9152", "1542": "\u5357\u5bab", "1543": "\u4fdd\u969c\u6027", "1544": "\u6301\u6709\u91cf", "1545": "\u540c\u4e1a", "1546": "\u6295\u653e", "1547": "\u4eb3\u5dde\u5e02", "1548": "\u4e0d\u666f\u6c14", "1549": "\u964d\u606f", "1550": "\u975e\u540c\u4e00", "1551": "\u53e3\u5473", "1552": "\u7f13", "1553": "\u670d\u9970", "1554": "\u4fe1\u8a89\u5ea6", "1555": "\u53d8\u4e3a", "1556": "\u62c5\u4efb", "1557": "\u65b0\u96c5", "1558": "\u4f73", "1559": "\u4ea7\u503c", "1560": "\u57ce\u53cb", "1561": "\u5e7c\u7a1a\u56ed", "1562": "\u7ea7", "1563": "\u4e00\u4e2a", "1564": "\u767e\u8d27\u8054\u9500", "1565": "\u4f18\u5316", "1566": "\u6b21\u7ea7", "1567": "\u673a\u7535", "1568": "\u51cf\u6301", "1569": "\u57ce\u533a", "1570": "\u4fe1\u8d37", "1571": "\u7ed3\u679c", "1572": "\u9152\u5382", "1573": "\u81ea\u4e3b", "1574": "\u540c\u6837", "1575": "\u7b51\u5ba2", "1576": "\u5b9d\u94a2", "1577": "\u6d88\u8017\u6027", "1578": "\u4e1c\u4e1c", "1579": "\u5546\u5708", "1580": "\u51c0\u6d41\u91cf", "1581": "\u7528\u9014", "1582": "\u88d5\u6052", "1583": "\u544a\u4e00\u6bb5\u843d", "1584": "\u666e\u53ca\u7387", "1585": "\u89c2\u5149", "1586": "\u540c\u6b65", "1587": "\u5de2\u6e56\u57ce", "1588": "\u5c55\u4f1a", "1589": "\u5bf9\u5b50", "1590": "\u4fdd\u5b89", "1591": "\u94c1\u77ff", "1592": "\u6781", "1593": "\u667a\u80fd", "1594": "\u73b0", "1595": "\u5e76\u91cd", "1596": "\u4e30", "1597": "\u65ed", "1598": "\u84dd\u79d1", "1599": "\u7f8e\u5986", "1600": "\u9972\u517b", "1601": "\u60e0\u6c11", "1602": "\u7a33\u5065", "1603": "\u7f8e\u79f0", "1604": "\u4e92\u4fdd", "1605": "\u68da\u6237\u533a", "1606": "\u606f", "1607": "\u5b8f\u4e1a", "1608": "\u68c0\u6d4b", "1609": "\u5b8f\u4fe1", "1610": "\u6d77\u6cb3", "1611": "\u5b9e\u8d28\u6027", "1612": "\u8fc5\u731b", "1613": "\u2014\u2014", "1614": "\u4e2d\u56fd\u94f6\u884c", "1615": "\u7740\u529b", "1616": "\u897f\u62d3", "1617": "\u5907\u8d27", "1618": "\u5de2\u6e56", "1619": "\u8005", "1620": "\u6d89\u53ca", "1621": "\u6838\u9500", "1622": "\u6388\u6743", "1623": "\u6842\u51a0", "1624": "\u8f6c\u5dee", "1625": "\u8f66\u4f4d", "1626": "/", "1627": "\u73b0\u573a", "1628": "\u5371\u673a", "1629": "\u6025\u5267", "1630": "\u4fdd\u672c\u578b", "1631": "\u5efa\u7b51\u4e1a", "1632": "\u62e8\u4ed8", "1633": "\u4fee\u9020", "1634": "\u5e73\u53f0", "1635": "\u4e94\u7cae\u6625", "1636": "\u98de\u673a", "1637": "\u6cb3\u5357\u7701", "1638": "\u623f\u6b3e", "1639": "\u540c\u65e5", "1640": "\u53c2\u4e0e", "1641": "\u5386\u5e74\u6765", "1642": "\u96c6\u5408", "1643": "\u6709\u5229\u4e8e", "1644": "\u516c\u65a4", "1645": "\u7eff\u57ce", "1646": "\u66f4", "1647": "\u63a8\u51fa", "1648": "\u521d\u671f", "1649": "\u5212", "1650": "EBIT", "1651": "\u8bbe", "1652": "\u6838\u5b9a", "1653": "\u5730\u4f4d", "1654": "\u6e90\u4e8e", "1655": "\u8299\u84c9", "1656": "\u6bd4\u4e3a", "1657": "\u6574\u4e2a", "1658": "\u677f\u623f", "1659": "\u5f71\u54cd\u529b", "1660": "\u94b1\u6c5f", "1661": "\u7c7b\u522b", "1662": "\u8d44\u62b5\u503a", "1663": "\u626c\u5dde", "1664": "\u5e02\u573a\u5360\u6709\u7387", "1665": "\u7535\u4ef7", "1666": "\u5e7f\u5dde\u9686", "1667": "\u6c34\u5229", "1668": "\u76f8\u5f53", "1669": "\u6ce8\u9500", "1670": "\u5e7f\u897f", "1671": "\u4e00\u5b63\u5ea6", "1672": "\u66ff\u4ee3", "1673": "\u6279\u91cf", "1674": "\u62c5\u4fdd\u8d39\u7387", "1675": "\u7ed3\u8bba", "1676": "\u767b\u8bb0", "1677": "\u5e03\u5c40", "1678": "\u4ef7\u6b3e", "1679": "\u76d1\u4e8b", "1680": "\u5cb7\u6c5f", "1681": "\u6cf0\u5dde", "1682": "\u63a8\u52a8", "1683": "\u9152", "1684": "\u6709\u52a9\u4e8e", "1685": "\u4efb\u52a1", "1686": "\u591a\u5e74", "1687": "\u79df\u5165", "1688": "\u5949\u884c", "1689": "\u901a\u7528", "1690": "\u751f\u7269", "1691": "\u589e\u4ea7", "1692": "\u8054\u7cfb", "1693": "\u5468\u8fb9", "1694": "\u51b6\u70bc", "1695": "\u82b1", "1696": "\u53d1\u5e03", "1697": "\u8c28\u614e", "1698": "\u6d4e\u5357", "1699": "\u78a7\u65e5", "1700": "\u603b\u6570", "1701": "\u6ea2\u4ef7", "1702": "\u5355\u4e2a", "1703": "\u51c0\u6d41\u51fa", "1704": "\u5546\u53a6", "1705": "\u53bf\u7ea7", "1706": "\u5f00\u76d8", "1707": "\u6279\u53d1", "1708": "\u505a", "1709": "\u7eff\u5316", "1710": "\u5730\u65b9", "1711": "\u5404\u533a", "1712": "\u5b89\u6c38\u4fe1", "1713": "\u5fb7\u4fe1", "1714": "\u52b3\u52a8\u529b", "1715": "\u91d1\u63a7", "1716": "\u501f\u8d37", "1717": "\u4eac", "1718": "\u4ea7\u4e1a\u94fe", "1719": "\u534e\u53d1\u5546", "1720": "\u653b\u514b", "1721": "\u4f9b\u7ed9", "1722": "\u9650\u5236", "1723": "\u7efc\u5408\u6027", "1724": "\u9053", "1725": "\u4ec1\u6cf0", "1726": "\u5373\u671f", "1727": "\u65e5\u5747", "1728": "\u4f4d\u4e8e", "1729": "\u5174\u4e1a", "1730": "\u56fd\u6cf0", "1731": "\u5929\u5802", "1732": "\u8c01", "1733": "\u6f5c\u529b", "1734": "\u5f69\u7968", "1735": "\u4e16\u535a", "1736": "\u4e8c\u7ea7", "1737": "\u5c71\u4e1c", "1738": "\u6570\u989d", "1739": "\u4f5b\u5c71\u5e02", "1740": "\u6295\u6807", "1741": "\u8fd8\u6709", "1742": "\u529e\u6cd5", "1743": "\u534e\u6cf0", "1744": "\u81ea\u7136\u4eba", "1745": "\u539f", "1746": "\u5f52\u6bcd", "1747": "\u8db3\u989d", "1748": "\u682a\u6d32", "1749": "\u56fd\u8d44", "1750": "\u51e0\u5341", "1751": "\u4ee3\u6301", "1752": "\u4f5c\u51fa", "1753": "\u65ed\u8679", "1754": "\u7a0e", "1755": "\u6bdb\u7eba\u7ec7\u54c1", "1756": "\u9530\u6e23\u94c1", "1757": "\u9530", "1758": "\u4ed3\u5e93", "1759": "\u5efa\u878d", "1760": "\u8bc4\u4f30\u503c", "1761": "\u666f\u73d1", "1762": "\u65e5\u8d8b", "1763": "\u80a1\u5229", "1764": "\u91d1\u60a6", "1765": "\u7acb\u6839", "1766": "\u4e09\u91cc\u4ead", "1767": "\u5174\u6cf0", "1768": "\u4f9d\u6258", "1769": "\u51ef\u8fea", "1770": "\u65e0\u9650", "1771": "\u8fdb\u8d27", "1772": "\u6570\u8baf", "1773": "\u9752\u6d66", "1774": "\u5408\u8ba1\u6570", "1775": "\u63a5\u5f85", "1776": "\u644a\u9500", "1777": "\u652f\u6491", "1778": "\u77e5\u540d", "1779": "\u5546\u6237", "1780": "\u642d\u5efa", "1781": "\u88c5\u9970", "1782": "\u4e2d\u95f4\u5546", "1783": "\u73b0\u6709", "1784": "\u5206\u4e3a", "1785": "\u597d\u8f6c", "1786": "\u5b89\u7f6e\u623f", "1787": "\u56fd\u9152", "1788": "\u8bae\u4ef7", "1789": "\u5f17\u82e5\u65af\u7279\u6c99\u5229\u6587", "1790": "\u4f4e\u4f4d", "1791": "\u91d1\u6d77", "1792": "\u88ab\u62c5\u4fdd\u4eba", "1793": "\u6765\u770b", "1794": "\u4e13\u67dc\u5546", "1795": "\u5206\u5305", "1796": "\u8c03\u51cf", "1797": "\u666e\u904d", "1798": "\u9a8c\u6536", "1799": "\u8fd0\u6cf0\u5229", "1800": "\u5546\u4f1a", "1801": "\u897f\u5b89\u5e02", "1802": "\u4f4e\u8ff7", "1803": "\u534e\u53d1", "1804": "\u88d5\u6d77", "1805": "\u666e\u901a", "1806": "\u8d1f\u503a\u8868", "1807": "\u66f4\u4e3a", "1808": "\u53f0\u5dde", "1809": "\u7535\u5546", "1810": "\u666f\u6eaa", "1811": "\u5229\u597d", "1812": "\u5927\u90fd", "1813": "\u4f9d\u7136", "1814": "\u4fe9", "1815": "\u78b3\u7d20", "1816": "\u5f69\u8679", "1817": "\u6d77\u5929", "1818": "\u9ec4\u91d1", "1819": "\u5f62\u52bf", "1820": "\u6d41\u901a\u80a1", "1821": "\u5341", "1822": "\u77ff\u77f3", "1823": "\u5927\u9053", "1824": "\u6ee8", "1825": "\u7ade\u6807", "1826": "\u8c61", "1827": "\u9b4f\u6865", "1828": "\u5236", "1829": "\u6574\u5408", "1830": "\u4fdd\u8d39", "1831": "\u4ea7\u6743", "1832": "\u8fd0\u884c", "1833": "\u5e9f\u6599", "1834": "\u9aa8\u5e72", "1835": "\u4e8c\u8005", "1836": "\u534e\u5b87\u00b7\u4e0a\u9662", "1837": "\u5b89\u65f6", "1838": "\u5f52\u96c6", "1839": "\u76f8\u5173\u6027", "1840": "\u9650\u8d37", "1841": "\u53ef\u89c2", "1842": "\u538b\u5236", "1843": "\u9650\u8d2d", "1844": "\u52df\u6295", "1845": "\u62d6\u5ef6", "1846": "\u6e56\u5317\u7701", "1847": "\u6bdb", "1848": "\u78b3\u7d20\u5382", "1849": "\u6708\u672b", "1850": "\u63aa\u65bd", "1851": "\u8bd5", "1852": "\u77ed", "1853": "\u65b0\u52a0\u5761", "1854": "\u8ffd", "1855": "\u51fa\u53f0", "1856": "\u51c6", "1857": "\u91d1\u5b87", "1858": "\u51fa\u53d1", "1859": "\u6709\u671b", "1860": "\u5b58\u7eed\u671f", "1861": "\u4e0a\u8868\u53ef\u77e5", "1862": "\u82cf\u5bbf", "1863": "\u706b\u529b\u53d1\u7535", "1864": "\u94c1", "1865": "\u6388", "1866": "\u9884\u671f", "1867": "\u7ba1\u7406\u5c40", "1868": "\u987a\u5fb7\u533a", "1869": "\u5170\u5dde", "1870": "\u6bd4\u503c", "1871": "\u589e\u91cf", "1872": "\u6d41\u8d37", "1873": "\u884d\u751f", "1874": "\u9655\u897f", "1875": "\u62c6\u8fc1\u623f", "1876": "\u540d\u6636", "1877": "\u5047\u65e5", "1878": "\u6742\u4ea4\u7a3b", "1879": "\u8f66\u5e93", "1880": "\u4e0d\u52a8\u4ea7", "1881": "\u7b49\u7ea7", "1882": "\u51b2\u56de", "1883": "\u529e\u7406", "1884": "\u5c1d\u8bd5", "1885": "\u63d0\u51fa", "1886": "\u6cf0\u5c71", "1887": "\u56fd\u571f", "1888": "\u7269\u4e1a\u8d39", "1889": "\u878d\u8fbe", "1890": "\u65e2", "1891": "\u5185\u5bb9", "1892": "\u4ea4\u6613\u6240", "1893": "\u5b9e\u9645\u4e0a", "1894": "\u6c5f\u897f", "1895": "\u5de5\u5546", "1896": "\u8d28\u62bc\u5f0f", "1897": "\u5355\u72ec", "1898": "\u4e2d\u5927", "1899": "\u8865\u8d34\u6b3e", "1900": "\u79cd\u5b50", "1901": "\u589e\u53d1", "1902": "\u6269\u5c55", "1903": "\u975e\u4e0a\u5e02", "1904": "\u6cd5\u89c4", "1905": "\u6301\u80a1\u4f1a", "1906": "\u53ec\u5f00", "1907": "\u51fa\u8ba9\u91d1", "1908": "\u5347\u9ad8", "1909": "\u8fd0", "1910": "\u4ea7\u4e1a\u56ed", "1911": "\u5236\u54c1", "1912": "\u8d44\u8d28", "1913": "\u5904\u7f5a", "1914": "\u4f1a\u8ba1\u5e08", "1915": "\u7cae\u6cb9", "1916": "\u5929\u7269", "1917": "\u9ad8\u7aef", "1918": "\u671b\u6c5f\u5e9c", "1919": "\u539f\u6599", "1920": "\u996d\u5e97", "1921": "\u751f\u6001", "1922": "\u79d1\u6797\u601d\u5fb7", "1923": "\u4ec1\u6000\u5e02", "1924": "\u6cf0\u5229", "1925": "\u529e\u516c\u4f1a\u8bae", "1926": "\u878d\u8d44\u5238", "1927": "\u63a7", "1928": "\u4e2d\u57ce", "1929": "\u5206\u671f", "1930": "\u4e94\u671f", "1931": "\u6500\u679d\u82b1", "1932": "\u83b7\u76ca", "1933": "\u5b9c\u5bbe\u5e02", "1934": "\u53e4\u4e95\u8d21", "1935": "\u5bbd\u6e7e\u4e95", "1936": "\u6709\u6797", "1937": "\u76f8\u4f3c", "1938": "\u5c3e\u76d8", "1939": "\u8ba4\u53ef", "1940": "\u539f\u6709", "1941": "\u5927\u989d", "1942": "\u6682\u4f30", "1943": "\u5f00\u6237", "1944": "\u8305\u53f0\u9547", "1945": "\u6267\u884c", "1946": "\u642c\u8fc1", "1947": "\u884c", "1948": "\u89c4\u5212", "1949": "\u94dd\u7535", "1950": "\u8868", "1951": "\u51b2", "1952": "\u7535", "1953": "\u5165\u8d26", "1954": "\u6700\u8fd1", "1955": "\u5dee\u989d", "1956": "\u8054\u9500", "1957": "\u53d8\u9769", "1958": "\u5b57", "1959": "\u5206", "1960": "\u7efc\u4e0a\u6240\u8ff0", "1961": "\u6536\u8d39", "1962": "\u4f4e\u6548", "1963": "\u8fa3", "1964": "\u4e07\u79d1", "1965": "\u5ef6\u957f\u7ebf", "1966": "\u597d\u5904", "1967": "\u9000\u6b3e", "1968": "\u7535\u8868", "1969": "\u9ad8\u79d1", "1970": "\u9644\u52a0", "1971": "\u5de9\u56fa", "1972": "\u51c0\u6536\u5165", "1973": "\u5e94\u7528", "1974": "\u590d\u6742", "1975": "\u91cd\u8ff0", "1976": "\u8d77\u4f0f", "1977": "\u57fa\u51c6", "1978": "\u90f4\u5dde", "1979": "\u8f6c\u79df", "1980": "\u53e4\u4e95", "1981": "\u7814\u53d1", "1982": "\u7a84", "1983": "\u4e1c\u57ce", "1984": "\u8d22\u52a1\u6027", "1985": "\u533a\u53cb", "1986": "\u8bc4\u7ea7", "1987": "\u7cbe\u70bc\u7089", "1988": "\u5171\u540c", "1989": "\u5907\u6848", "1990": "\u5347\u503c", "1991": "\u524d\u8ff0", "1992": "\u673a\u52a8\u8f66", "1993": "\u5229\u6da6\u8868", "1994": "\u4ee3\u507f", "1995": "\u5409\u76db\u4f1f\u90a6", "1996": "\u5355\u9879", "1997": "\u6d0b\u6cb3", "1998": "\u4e2d\u539f", "1999": "\u4e0b\u6ed1\u81f3", "2000": "\u5927\u9152\u5e97", "2001": "\u76c8\u8fbe", "2002": "\u9999\u917f", "2003": "\u7a0e\u52a1", "2004": "\u2014", "2005": "\u5c24\u5176", "2006": "\u51b3\u7b97", "2007": "\u6807\u5fd7\u6027", "2008": "\u5851\u6599", "2009": "\u64a4\u56de", "2010": "\u897f\u5b89", "2011": "\u4e91\u5546", "2012": "\u592a", "2013": "\u6863\u6b21", "2014": "\u5bcc\u9633", "2015": "\u9910\u996e", "2016": "\u4fe1", "2017": "\u59d4\u5458\u4f1a", "2018": "\u9500\u552e\u989d", "2019": "\u65ed\u9633", "2020": "\u8d35\u5dde\u7701", "2021": "\u6bdb\u7eba\u54c1", "2022": "\u62e8", "2023": "\u8bda\u4fe1", "2024": "\u5904", "2025": "\u70ed\u7089", "2026": "\u79cd\u732a", "2027": "\u5bb9\u95f3", "2028": "\u592a\u4fdd", "2029": "\u54c1\u8d28", "2030": "\u9ec4\u5c71", "2031": "\u6b21\u6570", "2032": "\u5174", "2033": "\u591a\u6b21", "2034": "\u9171\u9999\u578b", "2035": "\u624b\u5de5\u7a0b", "2036": "\u4ea7\u9500\u552e", "2037": "\u7814\u7a76", "2038": "\u96be\u5173", "2039": "3\u6708", "2040": "\u5317\u9762", "2041": "\u5229\u534e\u4f73", "2042": "\u4f20\u5a92", "2043": "\u6d77", "2044": "\u6d89", "2045": "\u575a\u5b9e", "2046": "\u786e\u4fdd", "2047": "\u5305\u88c5", "2048": "\u7533\u8bf7\u4eba", "2049": "\u6842\u6cf0", "2050": "\u6811\u7acb", "2051": "\u56f0\u5883", "2052": "\u4e2d\u94c1", "2053": "\u5173\u7cfb", "2054": "\u9664", "2055": "\u56ed", "2056": "\u4e2d\u4ecb", "2057": "\u8865\u52a9\u6b3e", "2058": "\u5357\u7ad9", "2059": "\u6d88\u9632", "2060": "\u516c\u8def", "2061": "\u4e0d\u5f97", "2062": "380\u53f7", "2063": "\u5965\u4f53", "2064": "\u660e\u786e", "2065": "\u51ef\u80dc", "2066": "\u5f25\u8865", "2067": "\u9ec4\u571f\u5761", "2068": "\u6276\u6301", "2069": "\u5546\u52a1", "2070": "\u5047\u8bbe", "2071": "\u8d1f\u503a\u989d", "2072": "\u5bbf\u8fc1\u5e02", "2073": "\u8d77\u59cb\u4ef7", "2074": "\u62b5\u62bc\u7269", "2075": "\u7206\u53d1\u5f0f", "2076": "\u4e1a\u745e", "2077": "\u81f3\u5173\u91cd\u8981", "2078": "\u5f62\u6001", "2079": "\u610f\u89c1", "2080": "\u6240\u5f97\u5e74", "2081": "\u8fc7\u6e21", "2082": "\u7701", "2083": "\u5546\u5e97", "2084": "\u7b2c068", "2085": "\u5efa\u9020", "2086": "\u4e0d\u542b", "2087": "\u9f99\u6c90\u6e7e", "2088": "\u94dd\u4ea7", "2089": "\u683c\u5c40", "2090": "wind", "2091": "\u91cd\u7f6e", "2092": "\u5f3a\u5927", "2093": "\u4e2d\u6c5f", "2094": "\u57fa\u51c6\u65e5", "2095": "\u671b\u6c5f\u8def", "2096": ",", "2097": "\u76d1\u5bdf\u90e8", "2098": "\u6750\u6599\u6b3e", "2099": "\u673a\u5173", "2100": "\u589e\u51cf", "2101": "\u5b9a\u5236", "2102": "\u5b89\u9633", "2103": "\u5148\u751f", "2104": "\u8d35\u5dde", "2105": "\u4e88", "2106": "\u6d41\u51fa\u4e3a", "2107": "\u56fd\u7a0e\u51fd", "2108": "\u6676\u6d77", "2109": "\u4e0d\u8db3\u4ee5", "2110": "\u52a0", "2111": "\u94dd\u6df1", "2112": "\u8f6c\u79fb", "2113": "\u5357\u5b81", "2114": "\u5168\u90fd", "2115": "\u6251\u6b63", "2116": "\u9002\u5f53", "2117": "\u5c79\u6cf0", "2118": "\u6c5f", "2119": "\u9009\u4e3e", "2120": "\u5e02\u653f\u5e9c", "2121": "\u8fde\u7eed", "2122": "\u4f9b\u70ed", "2123": "\u51a0\u4fe1", "2124": "\u8d22\u653f\u90e8", "2125": "\u540c\u4e00", "2126": "\u6c5f\u5317\u6d77", "2127": "\u8ba1\u7b97", "2128": "\u7edf\u8ba1\u5c40", "2129": "\u3010", "2130": "\u57ce\u5546\u884c", "2131": "\u62c5\u4fdd\u65b9", "2132": "\u957f\u845b", "2133": "\u7a3b\u82b1\u9999", "2134": "\u6838\u51c6", "2135": "\u81ea\u884c", "2136": "\u6298\u65e7\u8d39", "2137": "\u8be5\u7b14", "2138": "\u6279\u5b57", "2139": "\u539a\u5bcc", "2140": "\u4e25\u63a7", "2141": "\u7efc\u5408\u4f53", "2142": "\u9488\u5bf9\u6027", "2143": "\u767e\u5206\u6bd4\u6cd5", "2144": "\u51fa\u53d1\u884c", "2145": "\u4eba\u6c11", "2146": "\u5316\u5e03\u5c40", "2147": "\u62a5\u916c", "2148": "\u4e13\u5356\u5e97", "2149": "\u6df1\u5733\u5e02", "2150": "\u5efa\u5382", "2151": "\u56fd\u571f\u5e02", "2152": "\u75b2\u8f6f", "2153": "\u5b66\u5c1a", "2154": "\u96f6\u6563", "2155": "\u7535\u89e3", "2156": "\u4f53\u5236", "2157": "\u5468\u671f\u6027", "2158": "\u6821\u533a", "2159": "\u7a7a\u524d", "2160": "\u5927\u66f2", "2161": "\u51c0\u73b0\u91d1", "2162": "\u6392\u9664", "2163": "\u4e89\u593a", "2164": "\u624b\u65b9", "2165": "\u6709\u606f", "2166": "\u8425\u4e1a\u6bdb", "2167": "\u8ba4\u8d2d", "2168": "\u70ed\u7535\u673a\u7ec4", "2169": "\u754c\u5b9a", "2170": "\u4f01\u5ba1\u5b57", "2171": "\u5c3c\u5965", "2172": "\u65b9\u5411", "2173": "\u7b2c", "2174": "\u6cb9\u4ef7", "2175": "\u57ce\u5efa\u7a0e", "2176": "\u8fc7", "2177": "\u5d1b\u8d77", "2178": "\u7ecf\u8fc7", "2179": "\u62bc\u91d1", "2180": "\u9996\u5e2d", "2181": "\u7ed3\u8f6c\u4e3a", "2182": "\u84dd\u5c71\u5c6f\u6cb3", "2183": "\u672c\u5730", "2184": "\u6d1b\u9633", "2185": "\u4ea7\u51fa", "2186": "\u5929\u4fe1", "2187": "\u8fdc", "2188": "\u7b2c\u5341\u516d", "2189": "\u5238\u5546", "2190": "\u91d1\u4e30", "2191": "\u4e0d\u53ef", "2192": "\u51ef\u661f", "2193": "\u624b\u673a", "2194": "\u8058\u7528", "2195": "\u7f34\u4ed8", "2196": "\u7535\u8111", "2197": "\u539f\u5b50", "2198": "\u5907\u7528\u91d1", "2199": "\u53c2\u80a1", "2200": "\u53cc\u6b23\u77ff", "2201": "\u7b49\u4ef7", "2202": "\u8ba1\u63d0\u644a\u9500", "2203": "\u4e0b\u5217", "2204": "\u8d2d\u5730", "2205": "\u7b7e", "2206": "\u8131\u5e3d", "2207": "\u6298", "2208": "\u804c\u6743", "2209": "\u8f6c\u8d37", "2210": "\u4f9d\u6b21", "2211": "\u56ed\u533a", "2212": "\u8d2d\u623f\u4eba", "2213": "\u8f85\u6599", "2214": "\u5929\u6d25\u5e02", "2215": "\u8d21\u732e\u70b9", "2216": "\u4ff1\u4e50\u90e8", "2217": "\u80a1\u5b57", "2218": "\u957f\u6c99\u5e97", "2219": "\u5904\u7f6e\u8fa3", "2220": "\u8d39\u7528\u7387", "2221": "\u9c7c\u82d7", "2222": "\u6b66\u5ba3", "2223": "\u51a0\u519b", "2224": "\u5e26", "2225": "\u4fdd\u5965", "2226": "\u534e\u5b87.\u4e0a\u9662", "2227": "\u9644\u4ef6", "2228": "\u5e72\u575d\u5858", "2229": "\u7ea2\u5229", "2230": "\u5929\u4e4b\u4e1c", "2231": "\u9ed1", "2232": "\u627f\u53d7", "2233": "\u821c\u5929\u5b9c\u79c0", "2234": "\u6c47\u7387", "2235": "\u519c\u5de5\u5546", "2236": "\u5730\u4e0b", "2237": "\u94a2", "2238": "\u8c03\u67e5", "2239": "\u5e76\u5165", "2240": "\u8363\u81ba", "2241": "Springwood", "2242": "\u51c0\u6d41", "2243": "\u5185\u5916\u8d44", "2244": "\u96c6\u4e2d\u5ea6", "2245": "\u6cf0\u5b89", "2246": "\u6d3b\u8dc3", "2247": "\u5f3a\u5316", "2248": "\u5404\u5730", "2249": "\u8f90\u5c04", "2250": "\u8bb0\u5f55", "2251": "\u91d1", "2252": "\u534e\u6a3e", "2253": "\u5b9c\u5bb6", "2254": "\u51c6\u4fa7", "2255": "\u5b9c\u660c\u5fb7\u5e02", "2256": "\u8c03", "2257": "\u65b9\u9488", "2258": "\u9a8c", "2259": "\u6237\u6570", "2260": "A-0522", "2261": "\u5fb7\u8bc4", "2262": "\u6302\u724c", "2263": "\u4e2d\u957f\u671f", "2264": "\u8d21\u732e\u5ea6", "2265": "\u53d8\u6545", "2266": "\u5e55\u5899", "2267": "\u5b89\u5e86", "2268": "\u77ff\u533a", "2269": "\u62a2\u773c", "2270": "\u6536\u7f29", "2271": "\u6bcf\u80a1", "2272": "\u8d44\u53d1", "2273": "\u5916\u90e8", "2274": "\u4fe1\u606f\u5316", "2275": "\u533a\u57df\u6027", "2276": "\u91d1\u660e", "2277": "\u6606\u5c71", "2278": "\u4e2d\u671f", "2279": "\u96c5\u666f", "2280": "\u9f99\u4fe1", "2281": "\u519c\u6c11\u5de5", "2282": "\u5173\u95ed", "2283": "\u76db\u4e16\u946b", "2284": "\u5f02\u52a8", "2285": "\u6e05", "2286": "\u7a0d", "2287": "\u3011", "2288": "\u51b7\u94fe", "2289": "\u6302\u8d26", "2290": "\u5168\u56fd\u6027", "2291": "\u5ba2\u8fd0", "2292": "\u8d1d\u5cad", "2293": "\u9884\u6d4b", "2294": "\u5fae\u5e45", "2295": "\u7b2c\u56db\u5341\u4e00", "2296": "\u8f6f", "2297": "\u9000\u7a0e", "2298": "\u5f52\u8f66", "2299": "\u6d41\u51c0\u989d", "2300": "\u7ef5\u67d4\u578b", "2301": "\u4f5c\u7528", "2302": "\u82b1\u5fd7\u534e", "2303": "\u5bb6\u5ead", "2304": "\u8ba4\u53ef\u5ea6", "2305": "\u673a\u5e8a\u5382", "2306": "\u571f\u58e4", "2307": "\u5357\u533a", "2308": "\u521d\u5177\u89c4\u6a21", "2309": "\u6b4c\u5c71", "2310": "\u9879\u76ee\u6b3e", "2311": "\u663e\u50cf\u7ba1", "2312": "\u7545\u9500", "2313": "\u552f\u4e00", "2314": "\u63a5\u53d7", "2315": "\u53e6", "2316": "\u4e70\u65b9", "2317": "\u5458\u5de5", "2318": "\u90ce\u6eaa\u8def", "2319": "\u6db5\u76d6", "2320": "\u6ce2\u52a8\u6027", "2321": "\u9152\u7c7b", "2322": "\u514b\u62c9\u7ba1", "2323": "\u8425\u6536", "2324": "\u7acb\u9879", "2325": "\u8ba8\u8bba", "2326": "\u4e00\u6b21\u6027", "2327": "\u7f18\u4e8e", "2328": "\u89c4\u8303", "2329": "\u5883\u5185", "2330": "\u6cf8\u804c\u9662", "2331": "\u6f58", "2332": "\u878d\u5238", "2333": "\u5eb7\u5bb6", "2334": "\u62c5\u4fdd\u671f", "2335": "\u767e", "2336": "\u7248\u5757", "2337": "\u7f13\u89e3", "2338": "\u57fa\u5efa", "2339": "\u8d54\u507f\u91d1", "2340": "\u540d\u5217", "2341": "\u9677\u5165", "2342": "\u62b5\u9500", "2343": "\u9f50", "2344": "\u6728\u6750", "2345": "\u5168\u5e02", "2346": "H", "2347": "\u63d0\u6b3e", "2348": "\u539f\u5148", "2349": "\u6cb3\u5317\u7701", "2350": "\u62b5\u6263", "2351": "\u53e3\u7891", "2352": "\u6c28\u57fa\u9178", "2353": "\u4f9b\u5e94", "2354": "\u5f90\u5dde", "2355": "\u751a", "2356": "\u4f18\u5148\u7ea7", "2357": "\u8ba2\u7acb", "2358": "\u5149", "2359": "\u8584\u5f31", "2360": "\u8f6c\u578b", "2361": "\u800c\u5df2", "2362": "\u5212\u8f6c", "2363": "\u4e07", "2364": "\u9752\u9f99\u4e61", "2365": "\u591a\u79cd", "2366": "\u88ab\u544a", "2367": "\u6d41\u5165\u4e3a", "2368": "\u4f11\u6ce2\u987f", "2369": "\u6797\u4e1a", "2370": "\u8fbe\u4ea7", "2371": "\u539f\u503c", "2372": "\u8d34\u73b0", "2373": "\u68da\u6539", "2374": "\u53bf", "2375": "\u5904\u7f6e\u65e5", "2376": "\u6c5f\u5317", "2377": "\u5927\u4fee", "2378": "\u56fd", "2379": "\u57ab\u6b3e", "2380": "\u840e\u7f29", "2381": "\u5efa\u5de5", "2382": "\u5145\u5206", "2383": "\u5bfc\u5165", "2384": "\u8f6c\u56de", "2385": "\u5e93\u5b58\u91cf", "2386": "\u4e2d\u4f4e\u7aef", "2387": "\u767e\u8d27\u4e1a", "2388": "\u6295\u653e\u91cf", "2389": "\u4ea7\u6210\u54c1", "2390": "\u644a\u8584", "2391": "\u57f9\u80b2", "2392": "\u5e97\u94fa", "2393": "\u5206\u5360", "2394": "\u6fc0\u52b1", "2395": "\u5929\u5bcc", "2396": "\u767e\u901a\u8fbe", "2397": "\u73e0\u6d77\u5e02", "2398": "\u4e2d\u8000", "2399": "\u751f\u4ea7\u603b\u503c", "2400": "\u8425\u4e1a\u6267\u7167", "2401": "\u975e\u6cd5", "2402": "\u89d2\u5ea6", "2403": "\u6b63\u503c", "2404": "\u65e5", "2405": "\u8fd0\u7528", "2406": "\u957f\u8fdc", "2407": "\u60c5\u5f62", "2408": "\u519c\u7f51", "2409": "\u5937\u9675\u533a", "2410": "\u5bbd\u677e", "2411": "\u5b9e\u6536", "2412": "\u4f1a\u5c55", "2413": "\u7a0e\u52a1\u5c40", "2414": "\u56fd\u4f01", "2415": "\u8bb8\u53ef", "2416": "\u4e1c\u65b9", "2417": "\u6076\u5316", "2418": "\u4f9d\u636e", "2419": "\u5b9e\u884c", "2420": "\u65b0\u57ce\u533a", "2421": "\u4e1c\u4e3d\u533a", "2422": "\u73b0\u4ee3\u57ce", "2423": "\u5b9d\u7ecf", "2424": "\u5168\u4f01", "2425": "\u4e1c\u8425\u5e02", "2426": "\u4e94\u91d1", "2427": "\u4e1c\u8425", "2428": "\u6cf0\u5b89\u91d1\u6c34", "2429": "\u653e\u5bbd", "2430": "\u5f00\u53d1\u8d39", "2431": "\u5ba2\u89c2", "2432": "\u5148", "2433": "\u7b2c046", "2434": "\u90e8\u7f72", "2435": "\u65b0\u9ad8", "2436": "\u9999\u9152\u4e1a", "2437": "\u83b7\u5229", "2438": "\u5357\u901a\u5e02", "2439": "\u4e00\u65e6", "2440": "\u4e2d\u5316", "2441": "\u7a33\u4e2d\u6709\u964d", "2442": "\u52a0\u5feb", "2443": "\u88c5\u5907", "2444": "\u6e2f\u53e3", "2445": "\u4f0a\u83b1\u514b\u65af", "2446": "\u6d3e", "2447": "\u699c\u9996", "2448": "\u8fd0\u8f93\u8d39", "2449": "\u5382", "2450": "\u964d\u6e29", "2451": "\u6743\u529b", "2452": "\u4f4e\u4ef7", "2453": "\u4fee\u6539", "2454": "\u521d\u7ea7", "2455": "\u5343\u4ebf", "2456": "\u8fdd\u7ea6\u91d1", "2457": "\u5b63\u5ea6", "2458": "\u98ce\u683c", "2459": "\u57ce", "2460": "\u9500\u552e\u6b3e", "2461": "\u4ef7\u91cf", "2462": "\u73e0\u534e", "2463": "\u6682\u65f6", "2464": "\u501f\u5165", "2465": "\u94dd\u677f", "2466": "\u7ecf\u9500\u5546", "2467": "\u7f8e\u8a89\u5ea6", "2468": "\u4e00\u7b14", "2469": "\u51ed\u8d44\u8d28", "2470": "\u9012\u589e", "2471": "\u76d1\u4e8b\u4f1a", "2472": "\u7ec8\u6b62", "2473": "\u5e7f\u7269\u7f8e\u901a", "2474": "\u5546\u6307", "2475": "\u9e3f\u9ea6", "2476": "\u8d44\u8baf", "2477": "\u5180\u4f53", "2478": "\u5176\u5b83", "2479": "\u505c\u8f66", "2480": "\u6ea7\u9633\u5e02", "2481": "\u7ef5", "2482": "\u5747\u8861", "2483": "\u672c\u606f", "2484": "\u65f6\u95f4", "2485": "\u62a5\u916c\u7387", "2486": "\u56fd\u503a", "2487": "\u6b27", "2488": "\u6c34\u52a1", "2489": "\u4f4d\u5217", "2490": "\u542f\u52a8", "2491": "\u4e00\u5bb6", "2492": "\u9886\u53d6", "2493": "\u624d", "2494": "\u56fd\u9053", "2495": "\u666f\u6d66", "2496": "\u516b", "2497": "\u5305\u5934", "2498": "\u5f69\u7535", "2499": "\u57fa\u677f", "2500": "\u670d\u88c5", "2501": "\u7389\u7c73", "2502": "\u00b7", "2503": "\u53d1\u6761", "2504": "\u5c0f\u533a", "2505": "\u6536\u652f", "2506": "\u52bf\u6001", "2507": "\u5f00\u4e1a", "2508": "\u8865\u507f", "2509": "\u6797\u519c", "2510": "\u89c4\u7ae0", "2511": "\u6d77\u5916", "2512": "\u517b\u8001", "2513": "\u603b\u5c40", "2514": "\u8fd1\u4e9b\u5e74", "2515": "\u603b\u4ea7\u503c", "2516": "\u95ee\u9898", "2517": "\u5165\u4f4f\u7387", "2518": "\u5e7f\u7269", "2519": "\u516d", "2520": "\u5ba1\u8ba1\u7f72", "2521": "\u51c0\u5229\u6da6\u7387", "2522": "\u6807\u5fd7", "2523": "\u71c3\u6599", "2524": "\u7eb8\u5236\u54c1", "2525": "\u2022\u73af\u7403", "2526": "\u4f7f\u7528\u91cf", "2527": "\u529e\u516c", "2528": "\u652f\u67f1", "2529": "\u9881\u5e03", "2530": "\u516c\u5e03", "2531": "\u8d44\u91d1\u91cf", "2532": "\u6210\u4ea4\u91cf", "2533": "\u73b0\u8c61", "2534": "\u5fb7\u901a", "2535": "\u96c6\u4f53", "2536": "\u6d77\u664b", "2537": "\u5ba1\u8ba1\u5e08", "2538": "B", "2539": "\u5236\u9020\u4e1a", "2540": "\u5f81\u4fe1", "2541": "\u76d8\u6d3b", "2542": "\u9ec4\u6cb3", "2543": "\u516c\u5efa", "2544": "\u73b0\u91d1\u6d41", "2545": "\u4e1a\u660a", "2546": "\u676d\u57ce", "2547": "\u4e09\u6d0b", "2548": "\u519c\u6237", "2549": "\u5e38\u5dde\u5e02", "2550": "\u653f\u7b56\u6027", "2551": "\u7164\u6c14\u5c42", "2552": "\u603b\u516c\u53f8", "2553": "\u5e38\u9752\u653f", "2554": "\u4fdd\u6d01", "2555": "\u8bbe\u5b9a", "2556": "\u63a5", "2557": "\u7533\u8bf7", "2558": "\u592e\u884c", "2559": "\u535a\u53d1", "2560": "\u8bd5\u884c", "2561": "\u5206\u7acb", "2562": "\u6d17\u7cbe\u7164", "2563": "\u4ea4\u6613\u6027", "2564": "\u5fa1\u57ce", "2565": "\u91d1\u5b81", "2566": "\u65e0\u6781\u706f", "2567": "\u5353\u9526\u57ce", "2568": "\u8fd0\u8f93", "2569": "\u5217\u5165", "2570": "\u526f", "2571": "\u4ea7\u4e1a\u56ed\u533a", "2572": "\u62a5", "2573": "\u82cf\u5b81", "2574": "\u5965\u6625\u56ed", "2575": "\u89e3\u6563", "2576": "\u63d0\u524d", "2577": "\u56fd\u94f6", "2578": "\u5206\u6bd4", "2579": "\u5f00\u884c", "2580": "\u7ea21", "2581": "\u7ebf\u8def", "2582": "\u5cb3\u9633", "2583": "\u6267\u884c\u5b98", "2584": "\u505c\u6b62", "2585": "\u6c34\u4e1a", "2586": "\u4e92", "2587": "\u8bc4\u62a5\u5b57", "2588": "\u6842\u6797\u5e02", "2589": "\u7ed3\u5408", "2590": "\u5b9e\u529b", "2591": "\u4e1a\u6001", "2592": "\u5468\u56f4", "2593": "\u4e25\u5389", "2594": "\u7ecf\u5e74\u5316", "2595": "\u793e\u4f1a\u4fdd\u9669\u8d39", "2596": "\u7f29\u51cf", "2597": "\u6d77\u901a", "2598": "\u6e10", "2599": "\u4faf\u6f6e\u5e9c", "2600": "\u5ef6\u4f38", "2601": "\u534f\u5546", "2602": "\u539f\u540d", "2603": "\u957f\u57ce", "2604": "\u5e02\u5185", "2605": "\u627f\u62c5", "2606": "\u5e7f\u9614", "2607": "\u89e3\u8058", "2608": "\u94fa\u68da", "2609": "\u9ad8\u5cf0\u671f", "2610": "\u5efa\u8bbe\u91cf", "2611": "\u7269\u8d44", "2612": "\u8f93\u7535", "2613": "\u8ba4\u7f34", "2614": "\u5206\u884c", "2615": "\u4e89\u8bae", "2616": "\u5f85\u644a", "2617": "\u6e38\u5ba2", "2618": "\u4eba\u7269\u4e1a", "2619": "\u7b79\u63aa", "2620": "\u901a", "2621": "\u6d77\u5cb8", "2622": "\u8c6b\u80a1", "2623": "\u663e\u73b0", "2624": ":", "2625": "\u4f19\u4f34", "2626": "\u5b58\u5355", "2627": "\u52a8\u529b", "2628": "\u4efb\u4f55", "2629": "\u5b58\u8d37", "2630": "\u6210\u6548", "2631": "\u4e88\u4ee5", "2632": "\u5c45\u591a", "2633": "\u505c\u8f66\u573a", "2634": "\u54c8\u5bc6", "2635": "\u8282\u7ea6", "2636": "\u8d27", "2637": "\u7edd\u5bf9\u503c", "2638": "\u4e8c\u671f", "2639": "\u89c4\u5f8b", "2640": "\u5bf9\u8c61", "2641": "\u4e1a\u52a1\u6bdb", "2642": "\u767b\u9646", "2643": "\u6279", "2644": "\u91d1\u78ca", "2645": "\u5fa1\u9526\u57ce", "2646": "\u91d1\u571f", "2647": "\u56e2\u961f", "2648": "\u5f00\u653e", "2649": "\u4e2d\u5fc3\u533a", "2650": "\u6539\u59d4", "2651": "\u53d1\u8d77", "2652": "\u56de\u5f52", "2653": "\u7740\u91cd", "2654": "\u6b62", "2655": "\u516c\u7528", "2656": "\u5c11\u4e8e", "2657": "\u6625\u56ed", "2658": "\u4e94\u661f", "2659": "\u7a0e\u540e", "2660": "\u7f5a\u6b3e", "2661": "\u91d1\u77f3", "2662": "\u5f18\u7f8e", "2663": "\u6309\u671f", "2664": "\u5ea6\u5047\u533a", "2665": "\u7fd4\u9a8f", "2666": "+", "2667": "\u6cf8", "2668": "\u884c\u60c5", "2669": "\u6d77\u666f\u56ed", "2670": "\u7164\u4e1a", "2671": "\u8001\u9f84", "2672": "\u552e\u623f\u6b3e", "2673": "\u6bd4\u671f", "2674": "\u4f1a\u8bae", "2675": "\u5927\u516c\u9f0e\u68ee", "2676": "\u5f81\u6536", "2677": "\u5b9c\u660c\u5e02", "2678": "\u62a5\u544a\u4e66", "2679": "\u65b0\u6c82", "2680": "\u9762\u503c", "2681": "\u521d", "2682": "\u9a8c\u8d44", "2683": "\u9009\u7528", "2684": "\u552e\u6c34\u91cf", "2685": "\u7ed9\u6392\u6c34", "2686": "\u957f\u5ba1", "2687": "\u6e56\u5357\u8fa3", "2688": "\u6587", "2689": "\u5bb8\u88d5\u711c", "2690": "\u6309\u65f6", "2691": "\u8fc7\u6e21\u6027", "2692": "\u4ee3\u57ab", "2693": "\u79df\u8d41\u989d", "2694": "\u4e3e\u63aa", "2695": "\u5546\u6807", "2696": "\u4f18\u8d28", "2697": "\u7b2c58", "2698": "\u5e26\u9886", "2699": "\u66f4\u65b0", "2700": "\u5b50\u7248\u5757", "2701": "\u8446\u7fd4", "2702": "\u5b89\u6cfd", "2703": "\u76ca", "2704": "\u7535\u89e3\u69fd", "2705": "\u533a\u95f4", "2706": "\u533a\u653f\u5e9c", "2707": "\u4f9d\u9760", "2708": "\u6b63\u6570", "2709": "\u7a33\u5065\u6027", "2710": "\u53d1\u751f\u989d", "2711": "\u4e2d\u957f", "2712": "\u5408\u6e90", "2713": "\u6d88\u8d39\u54c1", "2714": "\u5956\u91d1", "2715": "\u7b2c\u4e09\u65b9", "2716": "\u4ee5\u540e", "2717": "\u7406\u5ff5", "2718": "\u95f4\u63a5", "2719": "\u9636\u6bb5", "2720": "\u5927\u5927", "2721": "\u505c\u8f66\u4f4d", "2722": "\u673a\u68b0", "2723": "\u4ea4\u6613\u4f1a", "2724": "\u4e0a\u4e0b\u6e38", "2725": "\u7ecf\u5178", "2726": "Candlewood", "2727": "\u6682\u4ed8", "2728": "\u5929\u76ee\u6e56", "2729": "\u5206\u6563", "2730": "\u8d44\u6599", "2731": "\u7279\u522b", "2732": "\u5965\u4fdd\u6d01", "2733": "\u65c5\u6e38\u5c40", "2734": "\u672c\u8eab", "2735": "\u65b9\u6cd5", "2736": "\u5c40", "2737": "\u6ce8\u8d44", "2738": "\u6e05\u7b97", "2739": "\u5b8f\u548c", "2740": "\u4ee3\u8868\u4eba", "2741": "\u4e03", "2742": "\u5b9a", "2743": "\u8bc9\u8bbc", "2744": "\u884c\u4f7f", "2745": "\u9a86\u9a6c\u6e56", "2746": "\u521b\u9020", "2747": "\u66f4\u6362", "2748": "\u623f", "2749": "\u653f\u5c40", "2750": "\u70b3\u4e09\u533a", "2751": "\u6218\u7565\u6027", "2752": "\u5305\u542b", "2753": "\u8c03\u7406\u5242", "2754": "\u6597\u95e8", "2755": "\u8d44\u6e90\u90e8", "2756": "\u7164\u5236\u54c1", "2757": "\u5f97", "2758": "\u67a2\u7ebd", "2759": "\u4ee5\u524d", "2760": "\u84dd\u8272", "2761": "\u4e0b\u5c5e\u5b50", "2762": "\u51b3", "2763": "\u4eba\u529b", "2764": "\u6682\u884c", "2765": "\u7b2c045", "2766": "\u6bcf", "2767": "\u6838\u5fc3\u533a", "2768": "\u5730\u94c1", "2769": "\u53d1\u8868", "2770": "\u8bc1\u5238\u5316", "2771": "\u6d41\u51fa\u91cf", "2772": "\u603b\u5382", "2773": "\u5374", "2774": "\u571f\u5730\u6b3e", "2775": "\u4e13\u4e1a\u5e97", "2776": "\u7533\u62a5", "2777": "\u5370\u53d1", "2778": "\u52a0\u5267", "2779": "\u5236\u5ea6", "2780": "\u4ee3\u5efa\u7ba1\u7406\u8d39", "2781": "\u5185\u90e8", "2782": "\u4f9b\u6c34\u91cf", "2783": "\u540d\u4e49", "2784": "\u7ec4\u5efa", "2785": "\u4e8c\u5206\u4e4b\u4e00", "2786": "\u66f4\u52a0", "2787": "\u70ad", "2788": "\u6cf0\u5b89\u91d1\u9e9f", "2789": "\u91cd\u89c6", "2790": "\u4e3b\u9500", "2791": "\u5f81", "2792": "\u5e02\u4e2d\u5fc3", "2793": "\u5b9a\u4e49", "2794": "\u6269\u5efa", "2795": "\u987e\u95ee", "2796": "\u6765\u8bf4", "2797": "\u4f9b\u4e0d\u5e94\u6c42", "2798": "\u6089\u6570", "2799": "\u5730\u57df", "2800": "\u4eba\u4ea7", "2801": "\u72ec\u5bb6", "2802": "\u4f9b\u9700", "2803": "\u519c\u5546\u884c", "2804": "\u8d1f\u4e14", "2805": "\u51c6\u5907\u91d1", "2806": "\u5c71\u5e84", "2807": "\u751f\u4ea7\u80fd\u529b", "2808": "\u4e2d\u90e8", "2809": "\u63d0\u4f9b\u5546", "2810": "\u4e1c\u758f", "2811": "\u6240\u6709\u6743", "2812": "\u94dc", "2813": "\u7126\u5316", "2814": "\u6295\u8d44\u989d", "2815": "\u8d34\u606f", "2816": "\u543b\u5408", "2817": "\u5f00", "2818": "\u4e09\u671f", "2819": "\u751c", "2820": "\u8ba2\u5355", "2821": "\u9a8c\u8bc1", "2822": "\u6bd4\u8f83\u6cd5", "2823": "\u8ba2\u91d1", "2824": "\u5168\u8d44", "2825": "\u5546\u54c1\u7ecf\u8425", "2826": "\u80fd\u5426", "2827": "\u4e34\u65f6\u6027", "2828": "\u534f\u4f1a", "2829": "\u9f0e\u68ee", "2830": "\u4e2a\u4eba\u6240\u6709", "2831": "\u80a1\u4efd\u5236", "2832": "\u6027\u8d28", "2833": "\u9f99\u5934", "2834": "\u8dcc", "2835": "\u4eca\u540e", "2836": "\u6c61\u6c34", "2837": "\u9000\u8fd8", "2838": "\u4f4d\u5c45", "2839": "\u4fe1\u8a89"}, "word2idx": {"\u53d1\u7535": 420, "\u6d89": 2044, "\u5f52\u8fd8": 532, "\u7b2c\u4e8c": 1262, "\u6cb3\u5357": 421, "\u987a\u5fb7\u533a": 1868, "\u968f": 503, "\u5546\u5708": 1579, "\u575a\u5b9e": 2045, "\u8be5\u9879": 1264, "\u786e\u4fdd": 2046, "\u4e3a\u4e3b": 224, "\u9633\u6781": 1265, "\u8d2d\u5165": 684, "\u4e09\u5efa": 504, "\u53d1\u751f": 135, "\u5305\u88c5": 2047, "\u5206\u7ea2": 822, "\u7533\u8bf7\u4eba": 2048, "\u8425\u4e1a": 48, "\u6b64\u5916": 823, "\u6842\u6cf0": 2049, "\u6811\u7acb": 2050, "\u7ebf": 685, "\u4fe1\u7528": 641, "\u4ee3\u7406\u8d39": 1508, "\u6cb3\u5317": 1025, "\u54c1\u724c": 642, "\u56f0\u5883": 2051, "\u6b63\u5e38": 455, "\u4e2d\u592e\u653f\u5e9c": 1509, "\u96be\u4ee5": 1266, "\u6539\u5236": 1267, "\u5173\u7cfb": 2053, "\u5ba3\u4f20\u8d39": 1026, "\u9664": 2054, "\u5e94\u4ed8": 231, "\u4e16\u7eaa": 910, "\u56fa\u5b9a\u8d44\u4ea7": 355, "\u5efa\u8bbe\u671f": 1510, "\u897f\u85cf": 1269, "\u8d44\u672c\u91d1": 1270, "\u76c8\u5229": 254, "\u5176": 273, "\u70ad\u9ed1": 1511, "\u7b2c\u4e00": 1512, "\u56ed": 2055, "\u300b": 422, "\u5de5\u827a": 643, "\u4e2d\u4ecb": 2056, "\u7b2c\u4e09": 1513, "\u65b0\u7586": 686, "\u5e94": 163, "\u53a6\u95e8": 1271, "\u5ba1\u6838": 911, "\u4fdd\u7ecf": 1514, "\u8865\u52a9\u6b3e": 2057, "\u6216\u8005": 1515, "\u8d1f\u503c": 1027, "\u8d1f\u503a": 34, "\u5357\u7ad9": 2058, "\u6d88\u9632": 2059, "\u8d22\u52a1\u6027": 1984, "\u4e3a\u4e86": 912, "\u6280\u672f": 560, "\u662f": 30, "\u8d27\u5e01": 343, "\u60c5\u51b5": 172, "\u7535\u89e3\u69fd": 2704, "\u5965\u4f53": 2063, "\u4f9d\u8d56": 1516, "\u660e\u786e": 2064, "\u56db\u671f": 749, "\u51ef\u80dc": 2065, "\u5f25\u8865": 2066, "\u9ec4\u571f\u5761": 2067, "\u4e5f": 196, "\u964d\u5e45": 87, "\u6276\u6301": 2068, "\u5f00\u5de5": 506, "\u8f6c\u4e3a": 1518, "\u6536\u76ca": 255, "\u5546\u52a1": 2069, "\u8fdd\u7ea6": 1519, "\u4ea7\u54c1": 100, "\u63aa\u65bd": 1850, "\u6ee8\u5dde\u653f\u901a": 1272, "\u987b": 824, "\u6536\u56de": 533, "\u5047\u8bbe": 2070, "\u5728\u5efa": 245, "\u76ee\u524d": 373, "\u6e2f\u53e3": 2444, "\u4e0a": 334, "\u53d7\u76ca": 913, "\u540e": 164, "\u5de5\u7a0b\u6b3e": 750, "\u6682": 751, "\u5e74\u5747": 309, "\u623f\u5730\u4ea7\u4e1a": 1273, "\u5f53\u671f": 77, "\u4efd\u989d": 825, "\u8d1f\u503a\u989d": 2071, "\u5b8f\u89c2": 1029, "\u8868\u660e": 507, "\u5bbf\u8fc1\u5e02": 2072, "\u661f\u7ea7": 826, "\u4f9d\u6cd5": 827, "\u5360\u636e": 915, "\u5f00\u5c55": 600, "\u957f\u5ba1": 2686, "\u7ec4\u6210": 1274, "\u6b63\u5f0f": 1521, "\u4ee5\u4e0b": 644, "\u4ee5\u4e0a": 141, "\u573a\u6240": 1522, "\u8d8b\u4e8e": 1275, "\u4e3b\u8981": 23, "\u8d77\u59cb\u4ef7": 2073, "\u53f7": 561, "\u6d3e": 2446, "\u699c\u9996": 2447, "\u62b5\u62bc\u7269": 2074, "\u7206\u53d1\u5f0f": 2075, "\u9700\u6c42\u91cf": 1523, "\u53d6\u5f97": 265, "\u7a0e\u8d39": 1032, "\u4e1a\u745e": 2076, "\u4eba\u4e3a": 1276, "\u53d7\u9650": 508, "\u672a\u6765": 509, "\u81f3\u5173\u91cd\u8981": 2077, "\u603b\u4f53": 197, "\u9646\u5bb6\u5634": 1524, "\u5f62\u6001": 2078, "\u5e73\u7a33": 344, "\u52a0\u4e4b": 1277, "\u53cc\u91cd": 1525, "\u57ce\u9645": 916, "\u610f\u89c1": 2079, "\u7965\u9a70": 1278, "\u6539\u53d8": 917, "\u6240\u5f97\u5e74": 2080, "\u5bc6\u96c6\u578b": 1526, "\u8fc7\u6e21": 2081, "\u9884\u6536": 277, "\u7701": 2082, "\u5546\u5e97": 2083, "\u4e1a\u52a1\u91cf": 645, "\u7b2c068": 2084, "\u4f17\u54c1\u751f\u9c9c": 1527, "\u5efa\u9020": 2085, "\u524d": 278, "\u4e0d\u542b": 2086, "\u6807\u7684": 918, "\u9f99\u6c90\u6e7e": 2087, "\u4e0e\u5176": 1529, "\u79d1\u76ee": 345, "\u51e0": 456, "\u4e0d\u540c": 919, "\u6240\u5728": 1530, "\u9752\u5c9b": 829, "\u94dd\u4ea7": 2088, "\u901a\u5e38": 1531, "\u51b3\u8bae": 646, "\u5546\u53a6": 1704, "\u8425\u8fd0": 1533, "wind": 2090, "\u867d\u7136": 562, "\u5b89\u6c38\u4fe1": 1712, "\u518d": 1279, "\u9759\u82d1": 1280, "\u4e2d\u6c5f": 2093, "\u5206\u914d\u6743": 1534, "\u57fa\u51c6\u65e5": 2094, "\u4e50\u94ed": 1281, "\u5b8c\u5584": 1282, "\u671b\u6c5f\u8def": 2095, ",": 2096, "\u4e0b\u964d": 50, "\u76d1\u5bdf\u90e8": 2097, "\u652f\u6491": 1777, "\u4e09\u5ce1": 830, "\u79cd\u4e1a": 1033, "\u6240": 39, "\u6d41\u8d37": 1872, "\u9010\u5e74": 69, "\u6539\u9020": 387, "\u7528\u5730": 1283, "\u91cd": 1034, "\u5b89\u5409": 601, "\u7ed3": 1035, "\u57fa\u5730": 831, "\u4f0a\u54c1": 1036, "\u673a\u5173": 2099, "\u7a33\u5065\u6027": 2709, "\u4fe1\u7528\u8bc1": 920, "\u589e\u51cf": 2100, "\u6750\u6599\u6b3e": 2098, "\u8fde\u5e74": 1536, "\u672c\u90e8": 1037, "\u89c4\u6a21": 52, "\u5929\u7136\u6c14": 1284, "\u7802\u77f3": 832, "\u5b9a\u5236": 2101, "\u4f7f\u7528\u6743": 377, "\u5965\u6797\u5339\u514b": 833, "\u5b89\u9633": 2102, "\u6301": 510, "$DIGIT$": 4, "\u5b89\u9632": 1268, "\u5e7f\u5dde\u9686": 1666, "\u6d41\u51fa\u4e3a": 2106, "\u500d\u6570": 966, "\u9e3f\u6d69": 1537, "\u6676\u6d77": 2108, "\u56e0\u4e3a": 96, "\u65b0\u578b": 563, "\u5c45\u6c11": 1039, "\u514b\u62c9\u7ba1": 2322, "\u57fa\u77f3": 1538, "\u52a0": 2110, "\u51b0\u7bb1": 1040, "\u94dd\u6df1": 2111, "\u9999\u6e2f": 602, "\u6cd5\u5b9a": 1539, "\u7ae0\u7a0b": 1041, "\u6709\u5173": 921, "\u7126\u4f5c": 1540, "\u57ce\u9547": 1286, "\u5171\u8ba1": 1042, "\u91d1\u660e": 2276, "\u8fd8\u6b3e": 1287, "\u8d44\u672c\u5316": 922, "\u540d\u9152": 1541, "\u7a81\u51fa": 689, "\u90e8\u5206": 139, "\u8f6c\u79fb": 2112, "\u5bf9\u5916": 511, "\u8bda\u4fe1": 2023, "\u6545": 690, "\u5357\u5b81": 2113, "\u5168\u90fd": 2114, "\u6210\u90fd": 475, "\u5168\u90e8": 297, "\u9002\u5f53": 2116, "\u5c79\u6cf0": 2117, "\u6c5f": 2118, "\u8fdb\u800c": 834, "\u7565": 513, "\u5b9e\u65bd": 691, "\u76f8\u540c": 1288, "\u9009\u4e3e": 2119, "\u5206\u7c7b": 752, "\u5357\u5bab": 1542, "\u5e02\u653f\u5e9c": 2120, "\u8fde\u7eed": 2121, "\u76f8": 534, "\u597d": 310, "\u8054\u9500": 1956, "\u5ba1\u8ba1": 136, "\u51a0\u4fe1": 2123, "\u4fdd\u969c\u6027": 1543, "\u4e94\u7cae\u6db2": 923, "\u4e0a\u534a\u5e74": 647, "\u5ba1\u8bae": 564, "\u6301\u6709\u91cf": 1544, "\u5382": 2449, "\u6216": 374, "\u5e38\u5fb7": 835, "\u51c6\u5907\u91d1": 2805, "\u8d22\u653f\u90e8": 2124, "\u56de\u843d": 603, "\u540c\u4e00": 2125, "\u6c5f\u5317\u6d77": 2126, "\u8d2d\u7269": 1289, "\u8ba1\u7b97": 2127, "\u5236": 1828, "\u8bc1\u5238": 221, "\u540c\u4e1a": 1545, "\u5b8f\u6865": 505, "\u6295\u653e": 1546, "\u3010": 2129, "\u53cb": 836, "\u57ce\u5546\u884c": 2130, "\u62c5\u4fdd\u65b9": 2131, "\u6548\u5e94": 1290, "\u4fe1\u9633": 1044, "\u4eb3\u5dde\u5e02": 1547, "\u672c\u91d1": 1291, "\u957f\u845b": 2132, "\u6bdb": 1847, "\u4e0d\u666f\u6c14": 1548, "\u8def\u7f51": 1045, "\u7b56\u7565": 654, "\u5360": 14, "\u6838\u51c6": 2134, "\u5efa\u7b51": 137, "\u81ea\u884c": 2135, "\u5404\u7c7b": 1046, "\u6298\u65e7\u8d39": 2136, "\u964d\u606f": 1549, "\u8be5\u7b14": 2137, "\u6279\u5b57": 2138, "\u539a\u5bcc": 2139, "\u975e\u540c\u4e00": 1550, "\u4e09": 161, "\u4e25\u63a7": 2140, "\u4fdd\u8bc1\u91d1": 318, "\u53e3\u5473": 1551, "\u7f13": 1552, "\u670d\u9970": 1553, "\u63a7\u80a1": 256, "\u8d1f": 476, "\u4fe1\u8a89\u5ea6": 1554, "\u7efc\u5408\u4f53": 2141, "\u5927": 47, "-": 924, "\u652f": 1176, "\u53d8\u4e3a": 1555, "\u767e\u5206\u6bd4\u6cd5": 2143, "\u51fa\u53d1\u884c": 2144, "\u5f62\u6210": 319, "\u4f63\u91d1": 512, "\u4eba\u6c11": 2145, "\u4f18\u52bf": 753, "\u5c1d\u8bd5": 1884, "\u62a5\u916c": 2147, "\u91cd\u7f6e": 2091, "\u62c5\u4efb": 1556, "\u5047\u53d1": 649, "\u5f53": 402, "\u7b79\u5efa": 1293, "\u65b0\u96c5": 1557, "\u4e13\u5356\u5e97": 2148, "\u8d22\u653f": 993, "\u6cf0\u8f76\u65af": 1294, "\u6df1\u5733\u5e02": 2149, "\u516c\u4ea4": 477, "\u8c03\u63a7": 1295, "\u5efa\u5382": 2150, "\u82d7\u6728": 1296, "\u4f73": 1558, "\u8054\u5408": 1297, "\u516c\u8def": 2060, "\u56fd\u571f\u5e02": 2151, "\u75b2\u8f6f": 2152, "\u5b66\u5c1a": 2153, "\u663e\u793a": 423, "\u751f\u9c9c": 731, "\u7535\u89e3": 2155, "\u4ea7\u503c": 1559, "\u4f53\u5236": 2156, "\u6210\u529f": 925, "\u6536\u5230": 375, "\u5468\u671f\u6027": 2157, "\u8fc5\u901f": 424, "\u7ba1\u7406\u8d39": 926, "\u8bbe\u8ba1": 837, "\u6821\u533a": 2158, "\u4e1c": 1298, "\u5b8f\u6cf0": 1049, "\u57ce\u53cb": 1560, "\u5e7c\u7a1a\u56ed": 1561, "\u5468\u671f": 650, "\u7ea7": 1562, "\u4e00\u4e2a": 1563, "\u4f9d\u7136": 1813, "\u9526\u5dde": 1050, "\u989d\u5ea6": 927, "\u6bb5": 928, "\u5176\u4ed6": 86, "\u7164\u5316": 1051, "\u533a": 1052, "\u6885\u5c71": 1053, "\u5e74\u521d": 287, "\u8d2d\u9500": 596, "\u767e\u8d27\u8054\u9500": 1564, "\u6307\u6807": 187, "\u5ba2\u6237": 234, "\u65e5\u5e38": 885, "\u4fdd\u7a0e": 1054, "\u4f18\u5316": 1565, "\u5b9a\u5411": 694, "\u4eba\u6bcd": 376, "\u4e89\u593a": 2163, "\u507f\u4ed8": 565, "\u786e\u8ba4": 241, "\u6052\u4e1a": 1055, "\u6df1": 1056, "\u4fdd\u6d01": 2554, "\u7cfb": 56, "\u6b21\u7ea7": 1566, "\u4eba\u6b21": 1299, "\u8dcc\u4ef7": 754, "\u6db2\u6001": 755, "\u624b\u673a": 2193, "\u624b\u65b9": 2164, "\u91cd\u70b9": 1129, "\u72b6\u6001": 604, "\u5929": 1057, "\u4f4f\u5b85": 238, "\u51cf\u6301": 1568, "\u8425\u4e1a\u6bdb": 2166, "\u57fa\u91d1": 605, "\u91c7\u7528": 437, "\u8ba4\u8d2d": 2167, "\u70ed\u7535\u673a\u7ec4": 2168, "\u5168\u56fd": 566, "\u80a1\u7968": 606, "\u5176\u4e2d": 59, "\u62c5\u4fdd": 203, "\u57ce\u533a": 1569, "\u4e94\u661f": 2658, "\u4fe1\u8d37": 1570, "\u4fca\u6c38": 1300, "\u59d4\u6258": 320, "\u901a": 2620, "\u754c\u5b9a": 2169, "\u63d0\u574f\u8d26": 1416, "\u4f01\u5ba1\u5b57": 2170, "\u5c3c\u5965": 2171, "\u878d\u521b": 1350, "\u9152\u5382": 1572, "\u65b9\u5411": 2172, "\u7c7b": 425, "\u6539\u9769": 1302, "\u623f\u5730\u4ea7": 62, "\u81ea\u4e3b": 1573, "\u540c\u6837": 1574, "\u7b51\u5ba2": 1575, "\u7b2c": 2173, "\u8fdb\u8d27": 1771, "\u6cb9\u4ef7": 2174, "\u79ef\u7d2f": 929, "\u5339\u914d": 567, "\u80fd\u6e90": 366, "\u672c": 303, "\u666f\u79be": 1303, "\u5965\u7279\u83b1\u65af": 695, "\u6cf8\u5dde": 756, "\u652f\u51fa": 257, "\u51fa\u79df\u8f66": 1304, "\u5b9d\u94a2": 1576, "\u4e2d\u57fa\u534e": 696, "\u5bf9\u5e94": 651, "\u8c03\u6574": 258, "\u5bf9\u7b49": 1517, "\u673a\u5668": 653, "\u8089\u5236\u54c1": 697, "\u8fc7": 2176, "\u5e74\u5316": 1058, "\u6d88\u8017\u6027": 1577, "\u4e1c\u4e1c": 1578, "\u603b\u8ba1": 607, "\u6b64\u7c7b": 1305, "\u5168\u9762": 1263, "\u5d1b\u8d77": 2177, "\u7b7e\u8ba2": 757, "\u51c0\u6d41\u91cf": 1580, "\u4f5c": 1059, "\u6728\u4e1a": 1306, "\u507f\u8fd8": 356, "\u7ecf\u8fc7": 2178, "\u5546\u573a": 478, "\u62bc\u91d1": 2179, "\u9996\u5e2d": 2180, "\u7528\u9014": 1581, "\u88d5\u6052": 1582, "\u8d70": 1060, "$UNKNOWN$": 3, "\u544a\u4e00\u6bb5\u843d": 1583, "\u8425\u4e1a\u52a1": 698, "\u4e34\u6d77\u5e02": 1028, "\u652f\u914d": 930, "\u4ee3\u8868": 758, "\u666e\u53ca\u7387": 1584, "\u7ed3\u8f6c\u4e3a": 2181, "\u6709\u9650": 327, "\u4f9b\u5e94\u5546": 838, "\u4f53\u73b0": 839, "\u6d88\u5316": 1061, "\u89c2\u5149": 1585, "\u5c11": 479, "\u540c\u6b65": 1586, "\u81ea\u8eab": 687, "\u529b\u4e89": 1062, "\u5de2\u6e56\u57ce": 1587, "\u84dd\u5c71\u5c6f\u6cb3": 2182, "\u6c34\u5229\u5de5\u7a0b": 840, "\u5c55\u4f1a": 1588, "\u6c88\u9633": 608, "\u7f6e\u6362": 1063, "\u571f\u5730": 131, "\u671f\u672b": 41, "\u672c\u5730": 2183, "\u56de\u62a5": 1308, "\u749f\u71a0": 1038, "\u6d1b\u9633": 2184, "\u6240\u5f97\u7a0e": 609, "\u964d": 1064, "\u4ea7\u51fa": 2185, "\u5bf9\u5b50": 1589, "\u5929\u4fe1": 2186, "\u4fdd\u5b89": 1590, "\u8fdc": 2187, "\u7b2c\u5341\u516d": 2188, "\u57ce\u5efa\u7a0e": 2175, "\u91c7\u8d2d\u91cf": 1309, "\u5bb6\u5c45": 692, "\u5238\u5546": 2189, "\u6c34\u5e73": 99, "\u627f\u5151": 388, "\u5317\u6d77": 699, "\u5e7f": 931, "\u6536\u53d6": 759, "\u53d7\u5230": 841, "\u4ea7\u91cf": 568, "\u94c1\u77ff": 1591, "\u5357\u5cb8": 1310, "\u6781": 1592, "\u672a\u80fd": 1311, "\u91d1\u4e30": 2190, "\u4e0d\u53ef": 2191, "\u540c": 1312, "\u51ef\u661f": 2192, "\u667a\u80fd": 1593, "\u673a\u7535": 1567, "\u5173\u8054\u65b9": 292, "\u8058\u7528": 2194, "\u7ed3\u679c": 1571, "\u5317\u4eac": 288, "\u5e76\u91cd": 1595, "\u4e30": 1596, "\u7ed3\u6784": 122, "\u6d17\u8863\u673a": 1065, "\u7f34\u4ed8": 2195, "\u4f46": 151, "\u7535\u8111": 2196, "\u539f\u5b50": 2197, "\u6295\u8d44\u6027": 529, "\u53c2\u80a1": 2199, "\u5907\u7528\u91d1": 2198, "\u5b9d\u77f3": 842, "\u91c7\u77ff": 1066, "\u53cc\u6b23\u77ff": 2200, "\u65ed": 1597, "\u957f\u6c99\u5e02": 1067, "\u635f\u5931": 569, "\u8ba1\u63d0\u644a\u9500": 2202, "\u4ff1": 1068, "\u4fdd\u7a0e\u533a": 610, "\u4e0b\u5217": 2203, "\u8d2d\u5730": 2204, "\u9e3f\u5b89": 1420, "\u7b7e": 2205, "\u84dd\u79d1": 1598, "\u63a8\u5e7f": 843, "\u8131\u5e3d": 2206, "\u8d85\u8fc7": 279, "\u548c": 9, "\u6807\u51c6": 935, "\u73af\u4fdd": 1314, "\u7b49\u4ef7": 2201, "\u4fe1\u53f7": 700, "\u4f7f\u7528": 480, "\u6298": 2207, "\u5229\u6da6": 89, "\u957f\u671f": 108, "\u804c\u6743": 2208, "\u957f\u57ce": 2603, "\u6ca1\u6709": 655, "\u5546\u94fa": 1069, "\u7f8e\u5986": 1599, "\u9972\u517b": 1600, "\u60e0\u6c11": 1601, "\u4f9d\u6b21": 2210, "\u6cd5\u5f8b": 1315, "\u56fd\u6709": 426, "\u7a33\u5065": 1602, "\u56ed\u533a": 2211, "\u65e0\u5f62": 535, "\u7a0b\u5ea6": 570, "\u7ecf\u9500\u5546": 2466, "\u4e0a\u7f51": 1316, "\u5b8c\u5168": 1082, "\u8d2d\u623f\u4eba": 2212, "\u8f85\u6599": 2213, "\u7f8e\u79f0": 1603, "\u6279\u590d": 1070, "\u5929\u6d25\u5e02": 2214, "\u9000\u56de": 844, "\u8d21\u732e\u70b9": 2215, "\u68ee\u6797": 1071, "\u56e0": 458, "\u4ff1\u4e50\u90e8": 2216, "\u88c5\u4fee": 845, "\u5165": 536, "\u62a5\u544a": 481, "\u4e92\u4fdd": 1604, "\u68da\u6237\u533a": 1605, "\u4f9b\u8d27\u91cf": 1117, "\u4ea7\u751f": 181, "\u540c\u6bd4": 97, "\u5b8f\u4e1a": 1607, "\u80a1\u5b57": 2217, "\u957f\u6c99\u5e97": 2218, "\u51fa": 537, "\u50a8\u5907": 538, "\u91c7\u77ff\u6743": 846, "\u4eba\u6c11\u5e01": 482, "\u6700": 246, "\u5904\u7f6e\u8fa3": 2219, "\u68c0\u6d4b": 1608, "\u8d39\u7528\u7387": 2220, "\u5b8f\u4fe1": 1609, "\u9c7c\u82d7": 2221, "\u6b66\u5ba3": 2222, "\u6d77\u6cb3": 1610, "\u8fc5\u731b": 1612, "\u4f9b": 346, "\u5929\u6d25": 367, "\u51a0\u519b": 2223, "\u5e26": 2224, "\u2014\u2014": 1613, "\u6d88\u8d39\u7a0e": 1072, "\u4fdd\u5965": 2225, "\u534e\u5b87.\u4e0a\u9662": 2226, "\u5730\u4ea7": 368, "\u8f66\u8f86": 1317, "\u9644\u4ef6": 2227, "\u5e72\u575d\u5858": 2228, "\u503a": 933, "\u6570\u636e": 389, "\u5c11\u91cf": 1318, "\u4e2d\u56fd\u94f6\u884c": 1614, "\u8fd1\u5e74": 571, "\u7ea2\u5229": 2229, "\u91cf": 1152, "\u5929\u4e4b\u4e1c": 2230, "\u9ed1": 2231, "\u9f50": 2343, "\u65d7": 1320, "\u89e3\u51b3": 934, "\u7740\u529b": 1615, "\u624b\u7eed\u8d39": 572, "\u5546\u54c1": 232, "\u627f\u53d7": 2232, "\u897f\u62d3": 1616, "\u8d26\u9762": 73, "\u5907\u8d27": 1617, "\u5de2\u6e56": 1618, "\u5408\u80a5\u5e02": 936, "\u5404\u9879": 539, "\u5efa\u9716": 1321, "\u7164\u70ad": 573, "\u8005": 1619, "\u821c\u5929\u5b9c\u79c0": 2233, "\u4e86": 49, "\u770b": 93, "\u65b9\u9762": 427, "\u540d": 483, "\u9762\u4e34": 488, "\u6d89\u53ca": 1620, "\u519c\u5de5\u5546": 2235, "\u6696": 1147, "\u76f8\u5173": 266, "\u957f\u6625": 1075, "\u4e0a\u5e02": 611, "\u4e3b\u4f53": 1322, "\u94a2": 2237, "\u7d2f\u8ba1": 315, "\u5ea6": 520, "\u672b": 283, "\u697c\u76d8": 1373, "\u5353\u8d8a": 760, "\u4e0b\u53d1": 1323, "\u79df\u8d41": 146, "\u4eba\u5458": 740, "\u627f\u5305": 1076, "\u5de6\u53f3": 335, "\u56e0\u6b64": 328, "\u534a\u5c9b": 1077, "\u62c6\u8fc1\u623f": 1875, "\u4e0d\u5229": 574, "\u5e76\u5165": 2239, "\u8363\u81ba": 2240, "\u5bc6\u5207": 1325, "\u6388\u6743": 1622, "\u7ecf\u6d4e": 575, "\u91ca\u653e": 937, "\u80a1\u4e1c\u4f1a": 1474, "\u4e0a\u5e74": 123, "\u7535\u89e3\u94dd": 1382, "\u6539\u5584": 938, "\u8f6c\u5dee": 1624, "\u4e3d\u6c34\u6e7e": 1327, "\u8d1f\u9762": 1388, "\u51c0\u6d41": 2242, "\u53cd\u6620": 612, "\u4ee5\u6765": 540, "\u5185\u5916\u8d44": 2243, "\u6574\u4f53": 200, "\u7279\u6027": 1328, "\u4e25\u683c": 848, "/": 1626, "\u9e3f\u9ea6": 2475, "\u96c6\u4e2d\u5ea6": 2244, "\u4f1a": 541, "\u4e0d\u786e\u5b9a\u6027": 1329, "\u6cf0\u5b89": 2245, "\u73b0\u573a": 1627, "\u901a\u77e5": 939, "\u88ab": 849, "\u5371\u673a": 1628, "\u4e00\u822c": 1078, "\u6d3b\u8dc3": 2246, "$VALUE$": 2, "\u5f3a\u5316": 2247, "\u5f3a": 280, "\u4e0b\u5c5e": 293, "\u5404\u5730": 2248, "\u603b\u7ecf\u7406": 1080, "\u94a6\u9632": 940, "\u670d\u52a1": 336, "\u8f90\u5c04": 2249, "\u4f17\u54c1": 439, "\u8bb0\u5f55": 2250, "\u8f6c\u79df": 1979, "\u6025\u5267": 1629, "\u7ecf": 140, "\u91d1": 2251, "\u534e\u6a3e": 2252, "\u5efa\u7b51\u4e1a": 1631, "\u4e3b": 1441, "\u5b9c\u5bb6": 2253, "\u62e8\u4ed8": 1632, "\u4fee\u9020": 1633, "\u5e73\u53f0": 1634, "\u51c6\u4fa7": 2254, "\u8bbe": 1651, "\u76f8\u5e94": 247, "\u5904\u4e8e": 218, "\u534f\u8bae": 577, "\u8c03": 2256, "\u666f\u6c34\u6e7e": 1234, "\u65b9\u9488": 2257, "\u9a8c": 2258, "\u4f17\u5408": 1331, "\u4e94\u7cae\u6625": 1635, "\u6237\u6570": 2259, "\u51b2\u51fb": 1332, "A-0522": 2260, "\u52a0\u5927": 383, "\u52a0\u6743": 701, "\u5fb7\u8bc4": 2261, "\u6cb3\u5357\u7701": 1637, "\u6e2f": 702, "\u6302\u724c": 2262, "\u4e2d\u957f\u671f": 2263, "\u91d1\u878d": 239, "\u963f": 613, "\u623f\u6b3e": 1638, "\u8d21\u732e\u5ea6": 2264, "\u540c\u65e5": 1639, "\u505a\u51fa": 942, "\u4fdd\u969c": 403, "\u53c2\u4e0e": 1640, "\u7f3a\u53e3": 1168, "\u540c\u65f6": 188, "\u7f6e\u4e1a": 120, "\u5386\u5e74\u6765": 1641, "\u504f": 657, "\u5bb6\u5177": 703, "\u96c6\u5408": 1642, "\u5e55\u5899": 2266, "[": 762, "\u6709\u5229\u4e8e": 1643, "\u5b89\u5e86": 2267, "\u516c\u65a4": 1644, "\u5e7f\u5dde\u5e02": 850, "\u63d0\u4f9b": 248, "\u590d\u5408": 281, "\u7eff\u57ce": 1645, "\u66f4": 1646, "\u7eff\u5316": 1709, "\u5e74\u5ea6": 347, "\u6210\u7acb": 1084, "\u63a8\u51fa": 1647, "\u7ec6\u5206": 1528, "\u4e0d\u52a8\u4ea7": 1880, "\u521d\u671f": 1648, "\u6bcf\u80a1": 2271, "\u5e94\u4ed8\u6b3e": 294, "\u57ce\u5efa": 1085, "\u5212": 1649, "\u5c5e\u4e8e": 337, "\u8fde\u9501": 1333, "EBIT": 1650, "\u4ef7\u683c": 212, "\u589e\u8d44": 763, "\u8d44\u53d1": 2272, "\u5916\u90e8": 2273, "\u5b58\u8d27": 225, "\u6838\u5b9a": 1652, "\u4fe1\u606f\u5316": 2274, "\u6c5f\u82cf\u7701": 704, "\u533a\u57df\u6027": 2275, "\u5730\u4f4d": 1653, "\u6e90\u4e8e": 1654, "\u6838\u7b97": 440, "\u81ea\u6709": 1099, "\u9700\u6c42": 469, "\u5b9e\u4e1a": 943, "\u6b63\u5728": 1086, "\u4ec5": 764, "\u6606\u5c71": 2277, "\u590d\u5408\u6750\u6599": 765, "\u5b81\u590f": 766, "\u6bd4\u4e3a": 1656, "\u4e2d\u671f": 2278, "\u5357\u901a": 282, "\u96c5\u666f": 2279, "\u53d1\u5c55": 155, "\u9f99\u4fe1": 2280, "\u519c\u6c11\u5de5": 2281, "\u8ba1\u91cf": 404, "\u6574\u4e2a": 1657, "\u4e50\u9f84": 1455, "\u6d41\u51fa": 441, "\u624d": 2493, "\u76db\u4e16\u946b": 2283, "\u77ff": 705, "\u5f02\u52a8": 2284, "\u677f\u623f": 1658, "\u5f71\u54cd\u529b": 1659, "\u6e05": 2285, "\u7a0d": 2286, "\u94b1\u6c5f": 1660, "\u3011": 2287, "\u7c7b\u522b": 1661, "\u8d44\u62b5\u503a": 1662, "\u635f\u76ca": 515, "\u51b7\u94fe": 2288, "\u626c\u5dde": 1663, "\u4f4d\u5c45": 2838, "\u5e02\u573a\u5360\u6709\u7387": 1664, "\u671f": 516, "\u540e\u7eed": 897, "\u8fdb\u51fa\u53e3": 484, "\u6302\u8d26": 2289, "\u5148\u751f": 2103, "\u7535\u4ef7": 1665, "\u5168\u56fd\u6027": 2290, "\u7406\u8d22": 578, "\u5ba2\u8fd0": 2291, "\u6c34\u5229": 1667, "\u6251\u6b63": 2115, "\u76f8\u5f53": 1668, "\u6ce8\u9500": 1669, "\u5e7f\u897f": 1670, "\u6dee\u5b89": 1334, "\u8ba1\u5165": 517, "\u9884\u6d4b": 2293, "\u63d0\u6b3e": 2347, "\u5fae\u5e45": 2294, "\u7b2c\u56db\u5341\u4e00": 2295, "\u589e\u52a0": 22, "\u5185\u8499": 1335, "\u63d0\u4ea4": 1088, "\u66ff\u4ee3": 1672, "\u65e0\u507f": 1336, "\u5178\u578b": 1089, "\u9152\u5e97": 259, "\u6d41\u5165": 390, "\u6279\u91cf": 1673, "\u4e2d\u7b51\u5929": 1337, "\u79df\u8d41\u6b3e": 944, "\u57ce\u5e02": 428, "\u62d3\u5c55": 1230, "\u6279\u51c6": 348, "\u8f83\u4e3a": 213, "\u5360\u6bd4": 88, "\u8282\u80fd": 1338, "\u62c5\u4fdd\u8d39\u7387": 1674, "\u5efa": 329, "\u7ed3\u8bba": 1675, "\u767b\u8bb0": 1676, "\u8bbe\u65bd": 349, "\u84b8\u6c7d": 743, "\u9000\u7a0e": 2297, "\u79df\u91d1": 542, "\u5f52\u8f66": 2298, "\u503a\u5238": 304, "\u6d41\u51c0\u989d": 2299, "\u4ef7\u6b3e": 1678, "\u7ee7\u7eed": 579, "\u201c": 260, "\u5305\u62ec": 358, "\u8f6c\u5165": 249, "\u6d77\u664b": 2536, "\u51fa\u8d44": 1090, "\u6d41\u52a8": 58, "\u9500\u552e": 64, "\u4f4d\u5217": 2489, "\u8d1f\u503a\u7387": 1340, "\u96c6\u56e2": 113, "\u56de\u8d2d": 706, "\u5cb7\u6c5f": 1680, "\u540c\u671f": 90, "\u503c": 767, "\u4f5c\u7528": 2301, "\u82b1\u5fd7\u534e": 2302, "\u5b8c\u5de5": 250, "\u627f\u5efa": 945, "\u4eba\u7269\u4e1a": 2618, "\u79cd": 851, "\u5bb6\u5ead": 2303, "\u53d1": 189, "\u63a8\u52a8": 1682, "\u9152": 1683, "\u9884\u4ed8": 305, "\u8fd9": 177, "\u6709\u52a9\u4e8e": 1684, "\u8ba4\u53ef\u5ea6": 2304, "\u673a\u5e8a\u5382": 2305, "\u652f\u7ebf": 543, "\u9020\u6210": 330, "\u571f\u58e4": 2306, "\u5357\u533a": 2307, "\u884d\u751f": 1873, "\u4e03": 2741, "\u5176\u6b21": 1091, "\u6709": 169, "\u521d\u5177\u89c4\u6a21": 2308, "\u503a\u52a1": 205, "\u5c0f": 148, "\u4efb\u52a1": 1685, "\u6b4c\u5c71": 2309, "\u4e8b\u9879": 544, "\u5f15\u53d1": 1411, "\u8fdb\u884c": 206, "\u501f\u6b3e": 109, "\u91cd\u5e86": 947, "\u5168\u989d": 1341, "\u7edd\u5bf9": 658, "\u4e8f\u635f": 485, "\u5927\u89c4\u6a21": 1092, "\u9879\u76ee\u6b3e": 2310, "\u8ba1\u5212": 852, "\u5bb6": 768, "\u591a\u5e74": 1686, "\u7eb8": 1342, "\u76d1\u4e8b": 1679, "\u6d77\u5cb8": 2621, "\u663e\u50cf\u7ba1": 2311, "\u5f00\u5177": 1313, "\u7545\u9500": 2312, "\u51b3\u7b97": 2006, "\u5dee\u5f02\u5316": 1094, "\u5c0f\u8ba1": 1095, "\u552f\u4e00": 2313, "\u5949\u884c": 1688, "\u4e0a\u5347": 61, "\u4ee3\u8868\u4eba": 2740, "\u7531\u4e8e": 60, "\u901a\u7528": 1689, "\u53e6": 2315, "\u4e70\u65b9": 2316, "\u975e\u7ecf\u8425\u6027": 1343, "\u5458\u5de5": 2317, "\u5355\u4f4d": 429, "\u4ea4\u901a": 518, "\u751f\u7269": 1690, "\u7a33\u4e2d\u6709\u5347": 1344, "\u589e\u4ea7": 1691, "\u8f83": 19, "\u6269\u80fd": 430, "\u8054\u7cfb": 1692, "\u7ba1\u63a7": 1345, "\u90ce\u6eaa\u8def": 2318, "\u6db5\u76d6": 2319, "\u6ce2\u52a8\u6027": 2320, "\u9152\u7c7b": 2321, "\u5468\u8fb9": 1693, "\u4e0d\u8db3\u4ee5": 2109, "\u8425\u6536": 2323, "\u51b6\u70bc": 1694, "\u8d44\u91d1": 119, "\u4e4b\u4e00": 459, "\u4e1a\u7ee9": 656, "\u5728": 45, "\u653e\u7f13": 1096, "\u82b1": 1695, "\u53d1\u5e03": 1696, "\u8c28\u614e": 1697, "\u65b0\u6c82\u5e02": 1347, "\u6295\u8d44": 57, "\u6263\u9664\u975e": 948, "\u8305\u53f0": 1292, "\u6d4e\u5357": 1698, "\u8ba8\u8bba": 2325, "\u4e00\u6b21\u6027": 2326, "\u77f3\u5bb6\u5e84": 949, "\u52bf\u5934": 1348, "\u7f18\u4e8e": 2327, "\u89c4\u8303": 2328, "\u5883\u5185": 2329, "\u6cf8\u804c\u9662": 2330, "\u6b65\u4f10": 1443, "\u5229\u606f": 251, "\u4fe1\u6258": 526, "\u6f58": 2331, "\u878d\u5238": 2332, "\u5eb7\u5bb6": 2333, "\u53e3\u5f84": 306, "\u67f3": 950, "\u7a81\u7834": 1349, "\u90fd": 659, "\u62c5\u4fdd\u671f": 2334, "\u53d8\u66f4": 1301, "\u767e": 2335, "\u78a7\u65e5": 1699, "\u603b\u6570": 1700, "\u5e94\u6536": 350, "\u7248\u5757": 2336, "DA": 1351, "\u7f13\u89e3": 2337, "\u6ea2\u4ef7": 1701, "\u4e8c\u7ea7": 1736, "\u57fa\u5efa": 2338, "\u5355\u4e2a": 1702, "\u8d54\u507f\u91d1": 2339, "\u201d": 252, "\u6536\u5165": 38, "\u5e93\u5b58": 709, "\u73b0\u72b6": 1367, "\u540d\u5217": 2340, "\u8d6b\u7136": 1352, "\u5e02\u503c": 1353, "\u51c0\u6d41\u51fa": 1703, "\u5355\u4e00": 951, "\u8303\u56f4": 311, "\u9677\u5165": 2341, "\u683c\u5c40": 2089, "\u676d\u5dde\u5e02": 769, "\u5408\u91d1": 710, "\u54c1\u79cd": 1354, "\u5b81\u6ce2": 1242, "\u5409\u6797": 1355, "\u53bf\u7ea7": 1705, "\u8fd8": 853, "\u5f00\u76d8": 1706, "]": 770, "\u62b5\u9500": 2342, "\u4ee5\u53ca": 92, "\u4f7f": 486, "\u4e00\u81f4": 431, "\u6279\u53d1": 1707, "\u957f": 660, "\u539f\u56e0": 54, "\u9ad8\u4e8e": 545, "\u5efa\u6613\u901a": 1363, "\u98df\u54c1": 1356, "\u505a": 1708, "\u56de\u6b3e": 854, "\u5efa\u5c4b": 952, "\u4f7f\u5f97": 289, "\u540c\u610f": 1083, "\u6728\u6750": 2344, "\u5730\u65b9": 1710, "\u6298\u65e7": 771, "\u51b3\u5b9a": 1357, "\u5404\u533a": 1711, "\u65c5\u6e38": 460, "\u5929\u660e": 1100, "\u5168\u5e02": 2345, "\u5927\u4e8e": 546, "\u5f3a\u5927": 2092, "H": 2346, "\u4eab\u6709": 772, "\u4e00\u5b63\u5ea6": 1671, "\u5168\u5e74": 953, "\u8446\u7fd4": 2701, "\u5468\u8f6c": 661, "\u539f\u5148": 2348, "\u5c0f\u8d37": 954, "\u53d1\u7968": 1358, "\u62df": 956, "\u4eba\u529b": 2763, "\u4ece\u4e8b": 957, "\u4e2d\u822a": 1101, "\u6cb3\u5317\u7701": 2349, "\u57fa\u677f": 2499, "\u534e\u4e1c": 1102, "\u5927\u5e45\u5ea6": 1093, "\u5de5\u4e1a": 773, "\u53e3\u7891": 2351, "\u76f4\u63a5": 487, "\u4fdd\u5229": 242, "\u6c28\u57fa\u9178": 2352, "\u9700\u8981": 547, "\u957f\u8d3a": 1359, "\u4e27\u5931": 1346, "\u5e7f\u6c38": 914, "\u5f90\u5dde": 2354, "\u52b3\u52a8\u529b": 1714, "\u77ff\u4ea7\u54c1": 1103, "\u56fd\u8d38": 1360, "\u4e1a\u52a1": 33, "\u5bb6\u7535": 711, "\u91d1\u63a7": 1715, "\u5f00\u91c7": 1361, "\u751a": 2355, "\u4f18\u5148\u7ea7": 2356, "\u501f\u8d37": 1716, "\u94dd\u6392": 1362, "\u4eac": 1717, "\u56e0\u800c": 1098, "\u8ba2\u7acb": 2357, "\u4ea7\u4e1a\u94fe": 1718, "\u5149": 2358, "\u534e\u53d1\u5546": 1719, "\u653b\u514b": 1720, "\u5206\u522b": 11, "\u4f9b\u7ed9": 1721, "\u5e02\u573a": 128, "\u5168": 648, "\u6d41": 519, "\u9650\u5236": 1722, "\u51fa\u8ba9": 548, "\u9879\u76ee": 46, "\u5c4b": 774, "\u98de\u673a": 1636, "\u8f6c\u578b": 2360, "\u7efc\u5408\u6027": 1723, "\u9053": 1724, "\u9053\u8def": 549, "\u4e3b\u8425": 614, "\u5212\u8f6c": 2362, "\u7ecf\u5e38\u6027": 775, "\u5e73\u5747": 405, "\u4e07": 2363, "\u5c1a\u672a": 461, "\u7814\u53d1": 1981, "\u4ec1\u6cf0": 1725, "\u914d\u5957": 662, "\u8868": 1950, "\u800c\u5df2": 2361, "\u591a\u79cd": 2365, "\u91cd\u5927": 443, "\u88ab\u544a": 2366, "\u6d41\u5165\u4e3a": 2367, "\uff0c": 7, "\u4f11\u6ce2\u987f": 2368, "\u76f8\u5bf9": 154, "\u56de\u6536": 688, "\u6797\u4e1a": 2369, "\u5173\u8054\u4eba": 958, "\u8fbe\u4ea7": 2370, "\u539f\u503c": 2371, "\u957f\u6c99": 550, "\u65e5\u5747": 1727, "\u4f4d\u4e8e": 1728, "\u57fa\u7840": 391, "\u8d34\u73b0": 2372, "\u5de5\u4f5c": 1364, "\u9ad8\u8fbe": 1104, "\u68da\u6539": 2373, "\u6ce8\u518c": 959, "\u5317\u65b0": 856, "\u9633\u4fe1": 1105, "\u53bf": 2374, "\u5904\u7f6e\u65e5": 2375, "\u7a33\u5b9a": 83, "\u5174\u4e1a": 1729, "\u56fd\u6cf0": 1730, "\u6c5f\u5317": 2376, "\u5265\u79bb": 857, "\u81ea\u52a8\u5316": 1106, "\u623f\u4ea7": 226, "\u597d\u8f6c": 1785, "\u6bcd\u516c\u53f8": 94, "\u6c47\u7387": 2234, "\u5929\u5802": 1731, "\u5c71\u6d77": 1107, "\u5927\u8fde": 1365, "\u8f6c": 615, "\u81f3": 227, "\u56fd": 2378, "\u57ab\u6b3e": 2379, "\u8bc4\u4f30": 339, "\u6c47\u7968": 407, "\u8c01": 1732, "\u840e\u7f29": 2380, "\u91c7\u53d6": 1366, "\u5efa\u5de5": 2381, "\u7ecf\u8d38": 1074, "\u65b0\u589e": 261, "\u6f5c\u529b": 1733, "\u5411": 462, "\u5f69\u7968": 1734, "\u5bfc\u5165": 2383, "\u5e26\u6765": 616, "\u5730\u4e0b": 2236, "\u8f6c\u56de": 2384, "\u4e16\u535a": 1735, "\u9752\u9f99\u4e61": 2364, "\uff1b": 26, "\u8fdc\u6d32": 798, "\u91d1\u6d77": 1791, "\u94a6": 617, "\u53ca\u5176": 618, "\u4e2d": 66, "\u5927\u4f1a": 1368, "\u65b0": 174, "\u4ed8\u6b3e": 712, "\u4e2d\u4f4e\u7aef": 2386, "\u9ad8\u4f4d": 1369, "\u76f8\u7b26": 776, "\u8584\u5f31": 2359, "\u767e\u8d27\u4e1a": 2387, "\u6295\u653e\u91cf": 2388, "\u8425\u4e1a\u7a0e": 1110, "\u5148\u540e": 1370, "\u4ea7\u6210\u54c1": 2389, "\u644a\u8584": 2390, "\u6ce8\u5165": 713, "\u751f\u957f": 1111, "\u5927\u5510": 378, "\u5ef6\u548c": 1371, "\u7261\u4e39\u6c5f": 1112, "\u5e97\u94fa": 2392, "\u5206\u5360": 2393, "\u6fc0\u52b1": 2394, "\u9879": 167, "\u6bd4\u7387": 207, "\u5929\u5bcc": 2395, "\u6838\u9500": 1621, "\u4e00": 158, "\u62d3\u5bbd": 1372, "\u5ef6\u4f38": 2600, "\u6269\u5c55": 1902, "\u6211\u56fd": 489, "\u5c71\u4e1c": 1737, "\u57fa\u51c6": 1977, "\u5408\u540c": 490, "\u5408\u7406": 312, "\u767e\u901a\u8fbe": 2396, "\u7edd\u5927\u591a\u6570": 1374, "\u8d2d\u7f6e": 1113, "\u6570\u989d": 1738, "\u5916\u77ff": 1375, "\u7a3b\u82b1": 960, "\u73e0\u6d77\u5e02": 2397, "\u4e2d\u8000": 2398, "\u751f\u4ea7\u603b\u503c": 2399, "\u8425\u4e1a\u6267\u7167": 2400, "\u975e\u6cd5": 2401, "\u89d2\u5ea6": 2402, "\u56fd\u4fe1": 1114, "\u6b63\u503c": 2403, "\u65e5": 2404, "\u8fd0\u7528": 2405, "\u94a2\u8d38": 961, "\u6548\u7387": 1115, "\u4f5b\u5c71\u5e02": 1739, "\u957f\u8fdc": 2406, "\u60c5\u5f62": 2407, "\u94c1\u5c71": 714, "\u8d26\u9f84": 201, "\u5206\u90e8": 324, "\u6295\u6807": 1740, "\u821c\u5929": 962, "\u98ce\u9669": 182, "\u8fd8\u6709": 1741, "\u519c\u7f51": 2408, "\u6309": 313, "\u5937\u9675\u533a": 2409, "\u7ecf\u8425": 78, "\u5bbd\u677e": 2410, "\u6ce2\u52a8": 107, "\u529e\u6cd5": 1742, "\u5b9e\u6536": 2411, "\u6d59\u6c5f": 444, "\u534e\u6cf0": 1743, "\u4f1a\u5c55": 2412, "\u81ea\u7136\u4eba": 1744, "\u7a0e\u52a1\u5c40": 2413, "\u5e7f\u4e1c": 580, "\u7ed3\u7b97\u91cf": 1376, "\u8d2d": 1116, "\u56fd\u4f01": 2414, "\u539f": 1745, "\u5f52\u6bcd": 1746, "\u4e1c\u65ed": 351, "\u6309\u7167": 963, "\u4ee5\u524d": 2759, "\u73b0\u91d1": 132, "\u8bb8\u53ef": 2415, "\u8db3\u989d": 1747, "\u6301\u6709": 228, "\u9500\u91cf": 715, "\u682a\u6d32": 1748, "\u5f00\u53d1": 76, "\u73e0\u6d77": 858, "\u7ed3\u8f6c": 262, "\u5386\u53f2": 1118, "\u51e0\u5341": 1750, "\u4ee3\u6301": 1751, "\u4f5c\u51fa": 1752, "\u4e1c\u65b9": 2416, "\u6682\u65f6\u6027": 1119, "\u6076\u5316": 2417, "\u4f9d\u636e": 2418, "\u65ed\u8679": 1753, "\u507f": 1120, "\u8fdb\u4e00\u6b65": 470, "\u8d56\u6c28\u9178": 964, "\u539f\u5219": 1377, "\u6606": 1378, "\u7a0e": 1754, "\u8d35\u5dde": 2104, "\u5b9e\u884c": 2419, "\u6bdb\u7eba\u7ec7\u54c1": 1755, "\u7a7a\u95f4": 965, "\u81ea\u8425": 716, "\u9530\u6e23\u94c1": 1756, "\u9000\u8fd8": 2837, "\u65b0\u57ce\u533a": 2420, "\u4ed3\u5e93": 1758, "\u5de5\u8d44": 777, "\u5b58\u6b3e": 663, "\u7531\u6b64": 1121, "\u4e88": 2105, "\u62b5": 1122, "\u4e1c\u4e3d\u533a": 2421, "\u5236\u54c1": 1911, "\u8bc4\u4f30\u503c": 1760, "\u73b0\u4ee3\u57ce": 2422, "\u5de5\u8d38": 1379, "\u9646\u7eed": 1123, "\u5b9d\u7ecf": 2423, "\u65b0\u95fb\u7eb8": 1380, "\u666f\u73d1": 1761, "\u5168\u4f01": 2424, "\u65e5\u8d8b": 1762, "\u6bdb\u5229\u7387": 295, "\u8865\u507f": 2508, "\u4e94\u91d1": 2426, "\u4e1c\u8425": 2427, "\u5357\u9633": 1124, "\u5e76": 204, "\u6388\u4fe1": 1381, "Springwood": 2241, "\u6cf0\u5b89\u91d1\u6c34": 2428, "\u56fd\u7a0e\u51fd": 2107, "\u653e\u5bbd": 2429, "\u822a\u7a7a": 967, "\u8d22\u653f\u5c40": 1247, "\u6388": 1865, "\u6fc0\u70c8": 1383, "\u91d1\u60a6": 1764, "\u6c47\u5b8f": 521, "\u7acb\u6839": 1765, "\u6784\u6210": 130, "\u56fd\u9645": 229, "\u968f\u4e4b": 664, "\u5ba2\u89c2": 2431, "\u51c0\u8d44\u4ea7": 118, "\u4e09\u91cc\u4ead": 1766, "\u5149\u7535": 717, "\u5174\u6cf0": 1767, "\u6bd4\u91cd": 29, "\u666f\u533a": 1125, "\u7b2c045": 2765, "\u671f\u8d27": 1126, "\u8d38\u6613": 192, "\u7845\u9530": 906, "\u6587\u5316": 1127, "\u8d28\u62bc": 718, "\u90e8\u7f72": 2434, "\u4ecd": 619, "\u65b0\u9ad8": 2435, "\u4f9d\u6258": 1768, "\u9999\u9152\u4e1a": 2436, "\u503a\u52a1\u4eba": 1385, "\u6bcf": 2766, "\u8865\u8d34": 1386, "\u5357\u901a\u5e02": 2438, "\u5206\u914d": 522, "\u4e00\u65e6": 2439, "\u51ef\u8fea": 1769, "\u65b9\u5f0f": 463, "\u79df\u8d41\u8d39": 1387, "\u8f66\u4f4d": 1625, "\u65e0\u9650": 1770, "\u4e2d\u5316": 2440, "\u54a8\u8be2\u8d39": 761, "\u81f4": 44, "\u7a33\u4e2d\u6709\u964d": 2441, "\u7b26\u5408": 859, "\u6842\u51a0": 1623, "\u5730\u57df": 2799, "\u6539\u826f": 1128, "\u52a0\u5feb": 2442, "\u88c5\u5907": 2443, "\u901a\u8fc7": 379, "\u53d1\u653e": 1389, "\u5174\u534e": 968, "\u9752\u6d66": 1773, "\u4e14": 152, "\u6761\u4ef6": 969, "\u5408\u8ba1\u6570": 1774, "\u8ba1\u7a0e": 1390, "\u7cfb\u5217": 860, "\u63a5\u5f85": 1775, "\u644a\u9500": 1776, "\u5927\u529b": 1520, "\u552e": 491, "\u56fd\u5185": 432, "\u65b9": 970, "\u4f0a\u83b1\u514b\u65af": 2445, "\u91d1\u9f0e": 1031, "\u7269\u6d41\u56ed": 828, "\u8865\u52a9": 551, "\u4e0d\u65ad": 184, "\u9762\u79ef": 971, "\u76f8\u7ee7": 861, "\u8fd0\u8f93\u8d39": 2448, "\u4f59\u989d": 27, "\u7b7e\u7ea6": 1535, "\u77e5\u540d": 1778, "\u5546\u6237": 1779, "\u4e34\u65f6": 1391, "\u7b79\u8d44": 581, "\u901a\u8fbd": 1392, "\u5e74": 80, "\u6838\u5fc3": 665, "\u642d\u5efa": 1780, "\u88c5\u9970": 1781, "\u671f\u521d": 778, "$ATTRIBUTE$": 1, "\u7684": 12, "\u4e2d\u7ecf": 1393, "\u666e\u5143": 1394, "\u964d\u6e29": 2450, "\u6743\u529b": 2451, "\u4e94": 296, "\u5730\u5904": 862, "\u6d41\u52a8\u8d44\u91d1": 1130, "\u666f\u6c14": 552, "\u4e2d\u95f4\u5546": 1782, "\u4f4e\u4ef7": 2452, "\u9a6c\u9675\u5c71": 1395, "\u73b0\u6709": 1783, "\u603b\u5382": 2772, "\u5206\u4e3a": 1784, "\u767e\u8d27\u677f\u5757": 1396, "\u5177\u6709": 445, "\u5229\u5b89": 1131, "\u521d\u7ea7": 2454, "\u5343\u4ebf": 2455, "\u6539": 1397, "\u5317\u4eac\u5e02": 779, "\u4e94\u4e00": 1132, "\u6da8\u5e45": 972, "\u8fdd\u7ea6\u91d1": 2456, "\u4e30\u4e50": 1133, "\u957f\u5174": 863, "\u5b63\u5ea6": 2457, "\u62c6\u501f": 780, "\u8bf4\u660e": 973, "\u98ce\u683c": 2458, "\u4e4b\u95f4": 1398, "\u52a0\u5f3a": 582, "\u57ce": 2459, "\u5927\u4fee": 2377, "\u767e\u8d27": 208, "\u9500\u552e\u6b3e": 2460, "\u5b89\u7f6e\u623f": 1786, "\u6765": 121, "\u4f4e\u4f4d": 1790, "\u4f4e\u4e8e": 408, "\u56fd\u9152": 1787, "\u4ef7\u91cf": 2461, "\u6ce8": 1399, "\u73e0\u534e": 2462, "\u4ee5\u5f80": 1307, "\u8f6c\u8ba9": 457, "\u83b7\u5f97": 464, "\u6682\u65f6": 2463, "\u6e2f\u533a": 1134, "\u7ec4\u6210\u90e8\u5206": 719, "\u5428": 1400, "\u6b66\u6c49": 1135, "\u501f\u5165": 2464, "\u8bae\u4ef7": 1788, "\u94dd\u677f": 2465, "\u63a7\u5236": 331, "\u51c0\u73b0\u91d1": 2161, "\u6625\u5929": 974, "\u67a2\u7ebd": 2758, "\u5f53\u5730": 1401, "\u7f8e\u8a89\u5ea6": 2467, "\u5f17\u82e5\u65af\u7279\u6c99\u5229\u6587": 1789, "\u4e00\u7b14": 2468, "\u4ef7\u503c": 68, "\u5b9e\u9645": 620, "\u51c6": 1856, "\u80a1": 781, "\u51ed\u8d44\u8d28": 2469, "\u5473\u7cbe": 932, "\u589e\u957f": 32, "\u6a80\u6eaa": 666, "\u9012\u589e": 2470, "\u4e2a": 583, "\u4f5c\u4e3a": 584, "\u623f": 2748, "\u76d1\u4e8b\u4f1a": 2471, "\u7535\u5668": 392, "\u7a00\u7f3a": 1073, "\u534e\u5357": 667, "\u5145\u5206": 2382, "\u827a\u672f\u5bb6": 1079, "\u5e7f\u7269\u7f8e\u901a": 2473, "\u6bdb\u5229\u6da6": 621, "\u88ab\u62c5\u4fdd\u4eba": 1792, "\u53d7": 185, "\u5546\u6307": 2474, "\u4ece\u800c": 401, "\u4ea4\u6613\u65e5": 1136, "\u8d44\u8baf": 2476, "\u5180\u4f53": 2477, "\u5176\u5b83": 2478, "\u6c38\u57ce": 1402, "\u6765\u770b": 1793, "\u5f00\u653e": 2648, "\u4e13\u67dc\u5546": 1794, "\u7b2c046": 2433, "\u81ea\u6301": 864, "\u505c\u8f66": 2479, "\u6ea7\u9633\u5e02": 2480, "\u7ef5": 2481, "\u5e74\u672b": 553, "\u5747\u8861": 2482, "\u672c\u606f": 2483, "\u65f6\u95f4": 2484, "\u5206\u5305": 1795, "\u3001": 6, "\u56e0\u7d20": 492, "\u8c03\u51cf": 1796, "\u666e\u904d": 1797, "\u4e2d\u5fc3": 782, "\u8fbe\u5230": 178, "\u62a5\u916c\u7387": 2485, "\u56fd\u503a": 2486, "\u9a8c\u6536": 1798, "\u533b\u9662": 1403, "\u5317": 783, "\u4e00\u5b9a": 193, "\u6709\u6240": 138, "\u8f7b\u8d28": 784, "\u5546\u4f1a": 1800, "\u897f\u5b89\u5e02": 1801, "\u4f4e\u8ff7": 1802, "\u9884\u552e": 720, "\u6b27": 2487, "\u6ee8\u5317": 1404, "\u4e4b\u548c": 1137, "\u6c34\u52a1": 2488, "\u5212\u5206": 1339, "\u542f\u52a8": 2490, "\u4e00\u5bb6": 2491, "\u7535\u8868": 1968, "\u963f\u6ce2\u7f57": 668, "\u534e\u53d1": 1803, "\u5408\u8ba1": 71, "\u88d5\u6d77": 1804, "\u51c0": 359, "\u670d\u52a1\u4e1a": 1138, "\u9886\u53d6": 2492, "\u6240\u6709": 975, "\u73af\u5883": 442, "\u666e\u901a": 1805, "\u5357": 409, "\u8d37\u6b3e": 209, "\u8d1f\u503a\u8868": 1806, "\u66f4\u4e3a": 1807, "\u56fd\u9053": 2494, "\u666f\u6d66": 2495, "\u516b": 2496, "\u964d\u4f4e": 284, "\u5e94\u5f53": 1139, "\u6597\u95e8": 2754, "\u73b0\u4ee3": 1405, "\u826f\u597d": 321, "\u6bd4\u4f8b": 21, "\u5305\u5934": 2497, "\u5f69\u7535": 2498, "\u6bd4\u8f83": 114, "\u7efc\u5408": 240, "\u5404": 101, "\u52a0\u5de5": 554, "\u5904\u7406": 1140, "\u53f0\u5dde": 1808, "\u800c": 186, "\u77e5\u540d\u5ea6": 1532, "\u5173\u4e8e": 721, "\u8003\u8651": 1141, "\u7535\u5546": 1809, "\u670d\u88c5": 2500, "\u9010\u6e10": 322, "\u5e94\u6536\u6b3e": 323, "\u666f\u6eaa": 1810, "\u7389\u7c73": 2501, "\u4e1c\u797a": 1406, "\u6e20\u9053": 1142, "\u6c34\u69ad": 1143, "\u00b7": 2502, "\u81ea\u5907": 1144, "\u5145\u8db3": 1145, "\u57fa\u672c": 175, "\u51fa\u552e": 298, "\u5229\u597d": 1811, "\u516c\u5f00": 865, "\u4eba\u5de5": 622, "\u5927\u90fd": 1812, "\u53d1\u6761": 2503, "\u5c0f\u533a": 2504, "\u8d21\u732e": 360, "\u6b20\u6b3e": 1407, "\u6162": 976, "\u533b\u7597": 623, "\u767d\u9152": 380, "\u4fe9": 1814, "\u7ecf\u8425\u6027": 785, "\u9884\u5236\u54c1": 1146, "\u603b\u6536\u5165": 433, "\u5e26\u9886": 2698, "\u5468\u8f6c\u7387": 446, "\u78b3\u7d20": 1815, "\u5efa\u6210": 786, "\u52bf\u6001": 2506, "\u5f69\u8679": 1816, "\u4e8b\u52a1\u6240": 1408, "\uff09": 65, "\u6d77\u5929": 1817, "\u7eb8\u5236\u54c1": 2524, "\u4e1c\u8425\u5e02": 2425, "\u9ad8\u901f": 1409, "\u6797\u519c": 2509, "\u9ec4\u91d1": 1818, "\u2022\u73af\u7403": 2525, "\u6d41\u901a\u80a1": 1820, "\u80fd\u591f": 1148, "\u89c4\u7ae0": 2510, "\u6d77\u5916": 2511, "\u517b\u8001": 2512, "\u603b\u5c40": 2513, "\u603b\u4ea7\u503c": 2515, "\u8fbe": 235, "\u5341": 1821, "\u7164\u5316\u5de5": 624, "\u77ff\u77f3": 1822, "\u624b": 1149, "\u95ee\u9898": 2516, "\u5165\u4f4f\u7387": 2517, "\u5e7f\u7269": 2518, "\u6269\u5927": 165, "\u5b9c\u660c\u5fb7\u5e02": 2255, "\u5927\u9053": 1823, "\u6ee8": 1824, "\u516d": 2519, "\u73bb\u7483": 625, "\u7279\u522b": 2731, "\u8fd1\u5e74\u6765": 267, "\u5ba1\u8ba1\u7f72": 2520, "\u96c6\u4e2d": 340, "\u6d41\u5165\u91cf": 1410, "\u5236\u9020": 722, "\u6807\u5fd7": 2522, "\u3002": 10, "\uff08": 67, "\u4e3b\u5bfc": 955, "\u4ee3\u5efa": 977, "\u71c3\u6599": 2523, "\u5145\u6c9b": 1412, "\u5f00\u4e1a": 2507, "\u5de5\u5177": 434, "\u5f62\u52bf": 1819, "\u989d": 585, "\u7ade\u6807": 1825, "\u5b58\u5728": 314, "\u94f6\u884c": 149, "\u4f7f\u7528\u91cf": 2526, "\u529e\u516c": 2527, "\u901f\u52a8": 393, "\u8fd0\u884c": 1832, "\u8463\u4e8b\u4f1a": 978, "\u4e0b\u6ed1\u81f3": 1999, "\u9881\u5e03": 2529, "\u516c\u5e03": 2530, "\u9b4f\u6865": 1827, "\u7edf\u8ba1\u5c40": 2128, "\u8d44\u672c": 530, "\u76d1\u7763": 1413, "\u6cd5": 586, "\u6574\u5408": 1829, "\u6574\u7406": 523, "\u8d44\u91d1\u91cf": 2531, "\u80a1\u4efd": 190, "\u4eba\u6c11\u653f\u5e9c": 1151, "\u4ea7\u9500\u552e": 2036, "\u8def\u8f68": 724, "\u6d53\u9999\u578b": 979, "\u4fdd\u8d39": 1830, "\u91d1\u5c5e": 626, "\u6210\u4ea4\u91cf": 2532, "\u73b0\u8c61": 2533, "\u4ea7\u6743": 1831, "\u652f\u67f1": 2528, "\u5927\u91cf": 450, "\u8d2d\u623f": 980, "\u7ea2\u661f": 587, "\u5fb7\u901a": 2534, "\u5c11\u6570": 1414, "\u96c6\u4f53": 2535, "\u5e9f\u6599": 1833, "\u9aa8\u5e72": 1834, "\u5f88": 1427, "\u5ba1\u8ba1\u5e08": 2537, "B": 2538, "\u5982\u679c": 866, "\u5236\u9020\u4e1a": 2539, "\u5f81\u4fe1": 2540, "\u8425": 1415, "\u4e8c\u8005": 1835, "\u8865\u5145": 669, "\u9002\u4e2d": 871, "\u6cbe\u5316": 1153, "\u5b89\u65f6": 1837, "\u76d8\u6d3b": 2541, "\u5f52\u96c6": 1838, "\u76f8\u5173\u6027": 1839, "\u8fdb\u5165": 1154, "\u9ec4\u6cb3": 2542, "\u516c\u5efa": 2543, "\u80a1\u4e1c": 268, "\u73b0\u91d1\u6d41": 2544, "\u9650\u8d37": 1840, "\u4e1a\u660a": 2545, "\u7a7a\u524d": 2159, "\u676d\u57ce": 2546, "\u53ef\u89c2": 1841, "\u4e09\u6d0b": 2547, "\u89c4\u5b9a": 981, "\u538b\u5236": 1842, "\u8054\u8425": 447, "\u9650\u8d2d": 1843, "\u519c\u6237": 2548, "\u5e38\u5dde\u5e02": 2549, "\u653f\u7b56\u6027": 2550, "\u7164\u6c14\u5c42": 2551, "\u603b\u516c\u53f8": 2552, "\u5e38\u9752\u653f": 2553, "\u52df\u6295": 1844, "\u62d6\u5ef6": 1845, "\u6a21\u5f0f": 406, "\u51c0\u5229\u6da6\u7387": 2521, "\u6e56\u5317\u7701": 1846, "\u7ecf\u7eaa": 982, "\u5bb6\u6da6": 1155, "\u6765\u81ea": 269, "\u7ae3\u5de5": 465, "\u622a\u81f3": 15, "\u9886\u5148": 1326, "\u4ecd\u7136": 983, "\u968f\u65f6": 1156, "\u7f13\u6162": 1157, "\u7ea4\u7ef4": 787, "\u7a3b\u82b1\u9999": 2133, "\u540c\u884c\u4e1a": 1158, "\u8bbe\u5b9a": 2555, "\u63a5": 2556, "\u77ff\u4e1a": 725, "\u4ea7": 466, "\u8d26": 1159, "\u78b3\u7d20\u5382": 1848, "\u590d\u5408\u80a5": 984, "\u7533\u8bf7": 2557, "\u4e0a\u4e00\u5e74": 588, "\u5b89\u5fbd\u7701": 788, "\u6708\u672b": 1849, "\u78b3": 999, "\u4e0a\u6da8": 670, "\u63d0\u5347": 332, "\u4ea4\u4ed8": 448, "\u745e\u8d1d\u5361": 1160, "\u7c7b\u578b": 1417, "\u5382\u623f": 1161, "\u526f\u4ea7\u54c1": 1418, "\u592e\u884c": 2558, "\u8d22\u52a1": 183, "\u589e\u901f": 524, "\u96f6\u552e": 589, "\u786e\u5b9a": 985, "\u8bd5": 1851, "\u5927\u6984\u576a": 733, "\u8d44\u6e90": 590, "\u56de\u5347": 789, "\u4f01\u53d1": 1253, "\u901a\u8baf": 1419, "\u589e\u503c": 449, "\u8f68\u9053": 1162, "\u6750\u6599": 410, "\u77ed": 1852, "\u7f51\u7edc": 790, "\u8bd5\u884c": 2560, "\u65b0\u52a0\u5761": 1853, "\u5206\u7acb": 2561, "\u5f53\u524d": 995, "\u589e\u503c\u7a0e": 1163, "\u8ffd": 1854, "\u6001\u52bf": 170, "\u6d17\u7cbe\u7164": 2562, "\u9ad8\u5cf0\u671f": 2609, "\u8868\u73b0": 791, "\u77ff\u4ea7": 792, "\u4ea4\u6613\u6027": 2563, "\u5fa1\u57ce": 2564, "\u51fa\u53f0": 1855, "\u5269\u4f59": 1164, "\u63d0\u53d6": 986, "\u4e00\u7ea7": 1048, "\u4e4b\u5185": 1423, "\u4f9d\u8d56\u6027": 1165, "\u673a\u6784": 591, "\u516c\u79ef": 1166, "\u542b": 793, "\u56fd\u8d44": 1749, "\u91d1\u5b81": 2565, "\u534e\u76db": 1424, "\u91d1\u5b87": 1857, "\u51fa\u53d1": 1858, "\u6743\u76ca": 110, "\u6709\u671b": 1859, "\u6bdb\u7eba\u7ec7": 1167, "\u4ea7\u80fd": 555, "\u671f\u9650": 901, "\u5353\u9526\u57ce": 2567, "\u538b\u529b": 493, "\u6269\u5f20": 494, "\u53d8\u6545": 2265, "\u51fa\u73b0": 467, "\u7ef4\u6301": 370, "\u8fd0\u8f93": 2568, "\u5217\u5165": 2569, "\u5b9e\u73b0": 20, "\u4e0a\u6d77": 274, "\u526f": 2570, "\u5b58\u7eed\u671f": 1860, "\u5e7f\u544a": 867, "\u65f6": 868, "\u5408\u4f19": 592, "\u4e0a\u8868\u53ef\u77e5": 1861, "\u5c06": 126, "\u4fe1\u606f": 794, "\u6263\u9664": 795, "\u82cf\u5bbf": 1862, "\u72b6\u51b5": 451, "\u65f6\u70b9": 1457, "\u6295\u4ea7": 869, "\u6210\u672c": 222, "\u9ed1\u9f99\u6c5f": 1426, "\u62a5": 2572, "\u5bf9\u4e8e": 671, "\u589e\u957f\u7387": 270, "\u706b\u529b\u53d1\u7535": 1863, "\u82cf\u5b81": 2573, "\u5965\u6625\u56ed": 2574, "\u89e3\u6563": 2575, "\u6c34\u4ea7": 1170, "\u5927\u578b": 796, "\u63d0\u524d": 2576, "\u94c1": 1864, "\u56fd\u94f6": 2577, "\u624b\u5de5\u7a0b": 2035, "\u5408\u4f5c": 797, "$EOS$": 5, "\u5f00\u884c": 2579, "\u8d23\u4efb": 361, "\u7ea21": 2580, "\u7ebf\u8def": 2581, "\u82e5": 726, "\u9884\u671f": 1866, "\u5cb3\u9633": 2582, "\u8054\u6295": 1171, "\u7ba1\u7406\u5c40": 1867, "\u53ef": 219, "\u6267\u884c\u5b98": 2583, "\u53cb\u963f": 652, "\u8bbe\u7acb": 799, "\u505c\u6b62": 2584, "\u65e0\u6cd5": 988, "\u4efd": 381, "\u51c0\u503c": 672, "\u6c34\u4e1a": 2585, "\u8d27\u6b3e": 1172, "\u5170\u5dde": 1869, "\u6bd4\u503c": 1870, "\u9644\u5c5e": 727, "\u7ade\u4e89": 1428, "\u4e92": 2586, "\u4fdd\u8bc1": 1429, "\u589e\u91cf": 1871, "\u672c\u671f": 495, "\u77ed\u671f": 105, "\u5dee": 1430, "\u8fc7\u7a0b": 870, "\u6570\u91cf": 525, "\u589e": 1431, "\u5171": 1169, "\u8bc4\u62a5\u5b57": 2587, "\u79d1\u6280": 411, "\u6842\u6797\u5e02": 2588, "\u7ed3\u5408": 2589, "\u529b\u5ea6": 382, "\u5b8c\u6210": 386, "\u524d\u671f": 905, "\u8c6b\u80a1": 2622, "\u6536\u652f": 2505, "\u9655\u897f": 1874, "\u5b9e\u529b": 2590, "\u5b58\u91cf": 1182, "\u7535\u529b": 394, "\u51c6\u5219": 1173, "\u4e1a\u6001": 2591, "\u5468\u56f4": 2592, "\u9886\u57df": 1043, "\u6ee1\u8db3": 1432, "\u540d\u6636": 1876, "\u6bd4": 53, "\u5757": 989, "\u4e25\u5389": 2593, "\u5b9c\u660c": 1433, "\u519c\u4ea7\u54c1": 1174, "\u7ecf\u5e74\u5316": 2594, "\u65e0": 285, "\u7269\u4e1a": 223, "\u793e\u4f1a\u4fdd\u9669\u8d39": 2595, "\u8d1f\u6570": 1175, "\u5047\u65e5": 1877, "\u5728\u4e8e": 800, "\u7f29\u51cf": 2596, "\u534e\u5b87\u00b7\u4e0a\u9662": 1836, "\u8981\u6c42": 872, "\u5185": 103, "\u6d77\u901a": 2597, "\u94dd\u5408\u91d1": 468, "\u665f\u664f": 593, "\u6e10": 2598, "\u94a6\u5dde": 693, "\u51fa\u5177": 1177, "\u6742\u4ea4\u7a3b": 1878, "\u77ff\u533a": 2268, "\u5357\u8f66": 1178, "\u8f66\u5e93": 1879, "\u6d77\u95e8\u5e02": 1179, "\u79df\u5165": 1687, "\u5e45\u5ea6": 171, "\u7f34\u7eb3": 1434, "\u6536\u7f29": 2270, "\u751f\u4ea7": 214, "\u7535\u7164": 1180, "\u7b49\u7ea7": 1881, "\u6b3e": 299, "\u6b3e\u9879": 179, "\u9a7b\u9a6c\u5e97": 990, "\u6709\u606f": 2165, "\u5929\u5c71": 629, "\u51b2\u56de": 1882, "\u8fd1": 496, "\u62a2\u773c": 2269, "\u529e\u7406": 1883, "\u534f\u5546": 2601, "\u4e0a\u8ff0": 160, "\u539f\u540d": 2602, "\u603b\u989d": 43, "\u8f6c\u8d37": 2209, "\u5e02\u5185": 2604, "\u627f\u62c5": 2605, "\u4f46\u662f": 873, "\u829c\u6e56": 1435, "\u5316\u5e03\u5c40": 2146, "\u65b0\u534e\u901a": 1436, "\u6625\u56ed": 2657, "\u519c\u6751": 991, "\u63d0\u51fa": 1885, "\u88ab\u62c5\u4fdd\u65b9": 1181, "\u6709\u6548": 874, "\u7535\u91cf": 1437, "\u516c\u5bd3": 1438, "\u667a\u7075": 1439, "\u6709\u9650\u516c\u53f8": 37, "\u534e\u94f6": 1324, "\u6cf0\u5c71": 1886, "\u5373\u671f": 1726, "\u5e7f\u9614": 2606, "\u952d": 728, "\u968f\u7740": 133, "\u5f31": 1440, "\u89e3\u8058": 2607, "\u706b\u7535": 1233, "\u7269\u6d41": 556, "\u4fdd\u672c\u578b": 1630, "\u7845\u8c37": 1081, "\u5efa\u8bbe\u91cf": 2610, "\u7269\u8d44": 2611, "\u8bbe\u5907": 210, "\u98df\u4e1a": 514, "\u7b49": 91, "\u8f93\u7535": 2612, "\u5bf9": 72, "\u59d4\u6258\u65b9": 1183, "\u7269\u4e1a\u8d39": 1888, "\u8ba4\u7f34": 2613, "\u878d\u8fbe": 1889, "\u5206\u884c": 2614, "\u6761": 412, "\u51cf\u514d": 1442, "\u65e2": 1890, "\u88c5\u9970\u57ce": 1458, "\u7a7a\u8c03": 992, "\u5df2": 198, "\u5185\u5bb9": 1891, "\u4e89\u8bae": 2615, "\u6d4e\u6e90": 1087, "\u53ca\u65f6": 806, "\u4ea4\u6613\u6240": 1892, "\u9700": 875, "\u851a\u57ce": 1184, "\u5f85\u644a": 2616, "\u6e38\u5ba2": 2617, "\u6cf0\u5dde": 1681, "\u7247\u533a": 1206, "\u7b79\u63aa": 2619, "\u5b9e\u9645\u4e0a": 1893, "\u6295\u5165": 202, "\u627f\u63a5": 497, "\u57f9\u80b2": 2391, "\u65ed\u9f99": 1185, "\u7ec8\u6b62": 2472, "\u6c5f\u897f": 1894, "\u63a8\u8fdb": 876, "\u793e\u4f1a": 1109, "\u4f01\u4e1a": 111, "\u5de5\u5546": 1895, "\u6301\u7eed": 134, "\u5b50\u516c\u53f8": 150, "\u663e\u73b0": 2623, "\u53d6\u8d39": 707, ":": 2624, "\u5efa\u6750": 236, "\u4f19\u4f34": 2625, "\u8d28\u62bc\u5f0f": 1896, "\u7740": 1186, "\u9012\u5ef6": 729, "\u7ec4\u5408": 1444, "\u8d85\u5e02": 1445, "\u5355\u72ec": 1897, "\u9530\u94c1": 1187, "\u9010\u6b65": 362, "\u5145\u88d5": 1188, "\u6d3b\u52a8": 194, "\u884c\u4eba": 994, "\u79df": 527, "\u5b58\u5355": 2626, "GDP": 1446, "\u52a8\u529b": 2627, "\u4e2d\u5927": 1898, "\u7ed3\u76d8": 1447, "\u4efb\u4f55": 2628, "\u671f\u95f4": 363, "\u8865\u8d34\u6b3e": 1899, "\u4e4b\u524d": 855, "\u5b58\u8d37": 2629, "\u79cd\u5b50": 1900, "\u6210\u6548": 2630, "\u6c34\u6ce5": 594, "\u4e88\u4ee5": 2631, "\u8299\u84c9": 1655, "\u5e7f\u573a": 557, "\u6cd5\u4eba": 1189, "\u5316\u7ea4": 674, "\u4e0d\u826f": 1190, "\u5f71\u54cd": 115, "\u51cf\u503c": 877, "\u5c45\u591a": 2632, "\u5219": 1191, "\u5254\u9664": 1108, "\u505c\u8f66\u573a": 2633, "\u54c8\u5bc6": 2634, "\u8282\u7ea6": 2635, "\u4e0a\u6e38": 1192, "\u94a2\u94c1": 801, "\u8d27": 2636, "\u4ea6": 730, "\u7279\u5f81": 1193, "\u5b89\u88c5": 498, "\u91d1\u989d": 51, "\u975e\u4e0a\u5e02": 1903, "\u6301\u5e73": 878, "\u7edd\u5bf9\u503c": 2637, "\u4e8c\u671f": 2638, "\u6cd5\u89c4": 1904, "\u6301\u80a1\u4f1a": 1905, "\u89c4\u5f8b": 2639, "\u53ec\u5f00": 1906, "\u51fa\u8ba9\u91d1": 1907, "\u5bf9\u8c61": 2640, "\u652f\u6301": 631, "\u5347\u9ad8": 1908, "\u8fd0": 1909, "\u4ea7\u4e1a\u56ed": 1910, "\u6d41\u91cf": 635, "\u53d8": 802, "\u4e1a\u52a1\u6bdb": 2641, "\u6bcf\u5e74": 1448, "\u884c\u4e3a": 1285, "\u521d\u59cb": 996, "\u5efa\u878d": 1759, "\u51cf": 847, "\u5357\u4eac": 1449, "\u7ba1\u7f51": 1194, "\u767b\u9646": 2642, "\u6279": 2643, "\u5904\u7f5a": 1913, "\u91d1\u78ca": 2644, "\u884c\u4e1a": 173, "\u897f": 997, "\u5fa1\u9526\u57ce": 2645, "\u4f1a\u8ba1\u5e08": 1914, "\u53bb\u5e74": 1195, "\u4e00\u65b9\u9762": 803, "\u7535\u7f51": 1196, "$TIME$": 0, "\u5404\u671f": 395, "\u96f6\u6563": 2154, "\u5916": 879, "\u54a8\u8be2": 413, "\u8ffd\u6eaf": 1450, "\uff1a": 215, "\u82b1\u57ce": 998, "\u4e24": 352, "\u672a": 216, "\u91d1\u571f": 2646, "\u7cae\u6cb9": 1915, "\u672a\u7ecf": 396, "\u7f16\u53f7": 1451, "\u56e2\u961f": 2647, "\u4f9b\u5e94": 2353, "\u7eb3\u5165": 397, "\u4e2d\u5fc3\u533a": 2649, "\u53d1\u8d77": 2651, "\u5448": 70, "\u56de\u5f52": 2652, "\u5c65\u7ea6": 880, "\u5f53\u5e74": 156, "\u5929\u7269": 1916, "\u4e0d\u8db3": 1000, "\u5e26\u52a8": 804, "\u6760\u6746": 1319, "\u7740\u91cd": 2653, "\u6b62": 2654, "\u9ad8\u7aef": 1917, "\u5de5\u7a0b": 74, "\u516c\u7528": 2655, "\u9002\u65f6": 1197, "\u671b\u6c5f\u5e9c": 1918, "\u9686\u946b": 805, "\u5c11\u4e8e": 2656, "\u5206\u516c\u53f8": 1150, "\u53d1\u884c\u4eba": 28, "\u539f\u6599": 1919, "\u6cd5\u8ba1\u63d0": 1198, "\u575a\u6301": 1452, "\u7279\u70b9": 732, "\u996d\u5e97": 1920, "\u9996": 1199, "\u751f\u6001": 1921, "\u65ed\u901a": 1453, "\u79d1\u6797\u601d\u5fb7": 1922, "\u65b9\u6848": 627, "\u56fd\u5916": 1200, "\u4ea4": 1201, "\u7a0e\u540e": 2659, "\u53e6\u4e00\u65b9\u9762": 881, "\u7f5a\u6b3e": 2660, "\u4e2d\u56fd": 243, "\u603b": 35, "\u4e4b": 595, "\u5229\u7387": 1454, "\u7f8e\u6797": 1202, "\u91d1\u77f3": 2661, "\u5f18\u7f8e": 2662, "\u5173\u95ed": 2282, "\u6309\u671f": 2663, "\u878d\u8d44": 104, "\u4ec1\u6000\u5e02": 1923, "\u4ea4\u623f": 1456, "\u5546\u8a89": 1425, "\u5ea6\u5047\u533a": 2664, "\u4eba\u5747": 1203, "\u51a0\u540d": 1204, "\u6d77\u5357": 628, "\u7fd4\u9a8f": 2665, "\u533a\u57df": 1205, "\u5177\u4f53": 882, "\u5165\u5e93": 1001, "+": 2666, "\u6cf8": 2667, "\u6cf0\u5229": 1924, "\u5206\u6790": 414, "\u5927\u5bb6": 325, "\u529e\u516c\u4f1a\u8bae": 1925, "\u96c6\u56e2\u516c\u53f8": 734, "\u878d\u8d44\u5238": 1926, "\u4e1c\u758f": 2810, "\u5927\u5b97": 1002, "\u884c\u60c5": 2668, "\u63a7": 1927, "\u5f52\u5c5e": 302, "\u95e8\u5e97": 630, "\u80fd\u529b": 98, "\u6d77\u666f\u56ed": 2669, "\u7164\u4e1a": 2670, "\u5f97\u5230": 1207, "\u94a2\u6750": 1208, "\u4e3a": 8, "\u82b1\u56ed": 1003, "\u5f20\u6c5f": 1209, "\u8001\u9f84": 2671, "\u59d4\u8d37": 807, "\u6536": 237, "\u552e\u623f\u6b3e": 2672, "\u7968\u636e": 333, "\u7ea6": 357, "\u5904\u7f6e": 369, "\u6bd4\u671f": 2673, "\u4f1a\u8bae": 2674, "\u4ee5": 124, "\u5927\u516c\u9f0e\u68ee": 2675, "\u5448\u73b0": 162, "\u4f1a\u8ba1": 883, "\u663e\u8457": 558, "\u5f81\u6536": 2676, "\u8f6f\u4ef6": 1459, "\u5b9c\u660c\u5e02": 2677, "\u62a5\u544a\u4e66": 2678, "\u4e2d\u57ce": 1928, "\u5206\u671f": 1929, "\u65b0\u6c82": 2679, "\u8c03\u7406\u5242": 2753, "\u9762\u503c": 2680, "\u521d": 2681, "\u6240\u6709\u8005": 116, "\u5927\u66f2": 2160, "\u4e94\u671f": 1930, "\u6500\u679d\u82b1": 1931, "\u672c\u6b21": 675, "\u83b7\u76ca": 1932, "\u4e0b\u8dcc": 676, "\u6d88\u8d39\u54c1": 2713, "\u5f3a\u52b2": 1461, "\u6768\u658c": 884, "\u8d44\u8d28": 1912, "\u4eba": 18, "\u539f\u6750\u6599": 271, "\u5b9c\u5bbe\u5e02": 1933, "\u8986\u76d6": 1211, "\u53e4\u4e95\u8d21": 1934, "\u78a7\u6842\u56ed": 677, "\u5bbd\u6e7e\u4e95": 1935, "\u6709\u6797": 1936, "\u76f8\u4f3c": 1937, "\u676d\u5dde": 159, "\u6743\u76ca\u6cd5": 1212, "\u5c3e\u76d8": 1938, "\u6392\u9664": 2162, "\u9a8c\u8d44": 2682, "\u5f80\u6765": 415, "\u51cf\u5e45": 735, "\u534e\u5b87": 1462, "\u82cf\u6c28\u9178": 1004, "\u9009\u7528": 2683, "\u5c0f\u989d": 678, "\u5e76\u4e14": 736, "\u534e\u5b9d": 1213, "\u552e\u6c34\u91cf": 2684, "\u7ed9\u6392\u6c34": 2685, "\u8ba4\u53ef": 1939, "\u4e13\u9879": 886, "\u56fd\u5bb6": 737, "\u6839\u636e": 316, "\u7f51\u70b9": 633, "\u574f\u8d26": 307, "\u81ea\u7136": 1214, "\u56db\u5ddd": 887, "\u5982\u4e0b": 888, "\u6210": 1215, "\u539f\u6709": 1940, "\u652f\u4ed8": 341, "\u589e\u5e45": 36, "\u5fb7\u4fe1": 1713, "\u6e56\u5357\u8fa3": 2687, "\u8ba1": 300, "\u5ba2\u623f": 1463, "\u6587": 2688, "\u5bb8\u88d5\u711c": 2689, "\u5927\u989d": 1941, "\u7ed3\u7b97": 326, "\u4ea7\u4e1a": 452, "\u535a\u53d1": 2559, "\u5230": 290, "\u6682\u4f30": 1942, "\u8fc7\u6e21\u6027": 2691, "\u8305\u53f0\u9547": 1944, "\u6267\u884c": 1945, "\u4ee3\u57ab": 2692, "\u642c\u8fc1": 1946, "\u79df\u8d41\u989d": 2693, "\u6700\u4f4e": 1464, "\u884c": 1947, "\u4f4e": 180, "\u8d1d\u5cad": 2292, "\u5927\u90e8\u5206": 889, "\u4e3e\u63aa": 2694, "\u5546\u6807": 2695, "\u4e0b\u6e38": 681, "\u89c4\u5212": 1948, "\u529e\u516c\u697c": 1466, "\u975e": 143, "\u94dd\u7535": 1949, "\u975e\u516c\u5f00": 1216, "\u4f18\u8d28": 2696, "\u7b2c58": 2697, "\u59cb\u7ec8": 808, "\u66f4\u65b0": 2699, "\u8282\u70b9": 1210, "\u5de5\u4e1a\u56ed": 1217, "\u8d44\u4ea7": 31, "\u94dd\u952d": 416, "\u5730\u94c1": 2768, "\u5b50\u7248\u5757": 2700, "\u5982": 890, "\u4e2d\u94c1": 2052, "\u507f\u503a": 106, "\u5408\u5e76": 144, "\u6d77\u94b0": 1504, "\u6613": 1467, "\u4e13\u4e1a\u5e97": 2775, "\u542f\u7b56": 1468, "\u521b": 1469, "\u6b21": 809, "\u5b89\u6cfd": 2702, "\u4ee3\u507f\u7387": 1218, "\u53d7\u8d60": 1470, "\u5730\u533a": 528, "\u751c": 2819, "\u70ed\u7535": 891, "\u4e0b\u6ed1": 353, "\u51b2": 1951, "\u7535": 1952, "\u94fa\u68da": 2608, "\u4fe1\u4fdd": 1220, "\u5408\u80a5": 499, "\u516c\u5efa\u7c7b": 1471, "\u76ca": 2703, "\u62a5\u8868": 275, "\u592a\u4fdd": 2028, "380\u53f7": 2062, "\u5165\u8d26": 1953, "\u5e76\u8d2d": 1005, "\u8d26\u6b3e": 176, "\u6700\u8fd1": 1954, "\u5dee\u989d": 1955, "\u5408\u8ba1\u8fbe": 1472, "\u533a\u95f4": 2705, "\u4f9b\u70ed": 2122, "\u80a1\u6743": 168, "\u53d8\u9769": 1957, "\u533a\u653f\u5e9c": 2706, "\u53ef\u80fd": 417, "\u4f9d\u9760": 2707, "\u4faf\u6f6e\u5e9c": 2599, "\u4e34\u4e9a": 1221, "\u5b57": 1958, "\u5206": 1959, "\u6b63\u6570": 2708, "\u6536\u8d2d": 384, "\u7efc\u4e0a\u6240\u8ff0": 1960, "\u4e0e": 75, "\u4ea7\u4e1a\u56ed\u533a": 2571, "\u5355\u7eaf": 1473, "\u6536\u8d39": 1961, "\u53d1\u751f\u989d": 2710, "\u5c1a": 1475, "\u4f4e\u6548": 1962, "\u8868\u51b3\u6743": 1222, "\u8fa3": 1963, "\u4e07\u79d1": 1964, "\u800c\u8a00": 1030, "\u5ef6\u957f\u7ebf": 1965, "\u8425\u9500": 1223, "\u597d\u5904": 1966, "\u9664\u5916": 1224, "\u4e2d\u957f": 2711, "\u9000\u6b3e": 1967, "\u5408\u6e90": 2712, "\u5f00\u6237": 1943, "2-3": 1225, "\u53cc\u6b23": 1477, "\u9488\u5bf9\u6027": 2142, "\u65ed\u53cc": 1226, "\u76ee\u6807": 1478, "\u5956\u91d1": 2714, "\u914d\u4ef6": 1227, "\u7ed9": 471, "\u5b89\u5fbd": 1228, "\u9ad8\u79d1": 1969, "\u7b2c\u4e09\u65b9": 2715, "\u673a\u68b0\u8d39": 1229, "\u589e\u5f3a": 738, "\u4ee5\u540e": 2716, "\u7406\u5ff5": 2717, "\u4e5d\u60a6\u5ef7": 1479, "\u670d\u52a1\u8d39": 810, "\u9644\u52a0": 1970, "\u8ba1\u63d0": 500, "\u80a1\u5229": 1763, "\u95f4\u63a5": 2718, "\u80fd": 418, "\u6765\u6e90": 233, "\u9636\u6bb5": 2719, "\u5de9\u56fa": 1971, "\u51c0\u6536\u5165": 1972, "\u4e8e": 112, "\u5927\u5927": 2720, "\u751f\u4ea7\u7ebf": 811, "\u8f6f": 2296, "\u5e94\u7528": 1973, "\u505c\u8f66\u4f4d": 2721, "\u5df2\u7ecf": 892, "\u673a\u68b0": 2722, "\u51cf\u5c0f": 893, "\u81f4\u4f7f": 812, "\u4ea4\u6613\u4f1a": 2723, "\u590d\u6742": 1974, "\u653f\u7b56": 501, "\u516c\u56ed": 894, "\u6536\u5165\u4e3a": 739, "\u4e2d\u95f4": 1231, "\u4f20\u7edf": 1006, "\u51cf\u5c11": 40, "\u8fbe\u6210": 1007, "\u4e0a\u4e0b\u6e38": 2724, "\u6d4b\u8bd5": 1232, "\u4ece": 84, "\u63d0": 398, "\u5efa\u8bbe": 95, "\u5c3d\u7ba1": 1008, "\u91cd\u8ff0": 1975, "\u7ecf\u5178": 2725, "Candlewood": 2726, "\u6682\u4ed8": 2727, "\u56de": 453, "\u5de5\u7a0b\u91cf": 895, "\u5929\u76ee\u6e56": 2728, "\u8d77\u4f0f": 1976, "\u5206\u6563": 2729, "\u7528\u4e8e": 438, "\u95f4": 813, "\u4e1a\u4e3b": 896, "\u8fd0\u6cf0\u5229": 1799, "\u90f4\u5dde": 1978, "\u5929\u5e9c": 1422, "\u804c\u5de5": 1009, "\u516c\u5141": 301, "\u6210\u4e3a": 1330, "\u8d44\u6599": 2730, "\u7535\u5b50": 576, "\u5965\u4fdd\u6d01": 2732, "\u5e97": 941, "\u9999": 1480, "\u52df\u96c6": 814, "\u534f\u9f0e": 1481, "\u56de\u7b3c": 741, "\u65c5\u6e38\u5c40": 2733, "(": 24, "\u672c\u8eab": 2734, "\u4e0b\u884c": 1235, "\u6309\u63ed": 1236, "\u516c\u5171": 742, "\u53e4\u4e95": 1980, "\u65b9\u6cd5": 2735, "\u5c40": 2736, "\u5e03\u5c40": 1677, "\u5546\u54c1\u623f": 338, "\u5546\u4e18": 1237, "\u5546\u4e1a": 191, "\u534a": 1238, "\u82b1\u5385": 1239, "\u8001\u7a96": 946, "\u6ce8\u8d44": 2737, "\u6e05\u7b97": 2738, "\u53d1\u7535\u91cf": 1482, "\u62b5\u62bc": 898, "\u5b8f\u548c": 2739, "\u8be5": 42, "\u5b8c\u6bd5": 1240, "\u6500\u679d\u82b1\u5e02": 597, "\u8fdb\u5ea6": 1010, "\u6c27\u5316\u94dd": 899, "\u63a5\u53d7": 2314, "\u7a84": 1982, "\u878d\u65ed": 1241, "\u534f\u7fa4": 1483, "\u4e8c": 900, "\u6c5f\u82cf": 286, "\u6e56\u5317": 708, "\u4e1c\u57ce": 1983, "\u5b9a": 2742, "\u975e\u5e38": 1484, "\u6df1\u5733": 1485, "\u56fd\u52a1\u9662": 1097, "\u8bc9\u8bbc": 2743, "\u7ba1\u7406": 117, "\u884c\u4f7f": 2744, "\u9a86\u9a6c\u6e56": 2745, "\u7531": 125, "\u83b7\u53d6": 1421, "\u521b\u9020": 2746, "\u8d28\u91cf": 815, "\u5f00\u59cb": 472, "\u91c7\u8d2d": 308, "\u66f4\u6362": 2747, "\u534e\u5b87\u57ce": 1486, "\u62b5\u6263": 2350, "\u653f\u5c40": 2749, "\u62db\u6295\u6807": 1487, "\u70b3\u4e09\u533a": 2750, "\u53ca": 16, "\u4f4d": 1011, "\u5173\u8054": 291, "\u589e\u53d1": 1901, "\u6e56\u5357": 399, "\u884c\u653f": 816, "\u65e0\u6781\u706f": 2566, "\u6218\u7565\u6027": 2751, "\u5305\u542b": 2752, "\u533a\u53cb": 1985, "\u677f\u5757": 127, "\u8bc4\u7ea7": 1986, "\u7cfb\u7edf": 1460, "\u5e93\u5b58\u91cf": 2385, "\u5927\u5e45": 85, "\u534e\u5e9c": 1488, "\u4e00\u76f4": 634, "\u7ef5\u67d4\u578b": 2300, "\u4e8b\u4e1a": 1243, "\u4ea4\u6613": 342, "\u5357\u65b9": 1489, "\u8d44\u6e90\u90e8": 2755, "\u5bfc\u81f4": 79, "\u4e07\u8054": 598, "\u623f\u5efa": 419, "\u5bf9\u5185": 1490, "\u8d8b": 1491, "\u7164\u5236\u54c1": 2756, "\u4f4f\u623f": 1244, "\u6295": 1245, "\u5f97": 2757, "\u5efa\u7b51\u7269": 632, "\u7cbe\u70bc\u7089": 1987, "\u6309\u65f6": 2690, "\u5171\u540c": 1988, "\u6536\u6b3e": 473, "\u6539\u59d4": 2650, "\u5907\u6848": 1989, "\u8d44\u4ea7\u8d1f\u503a\u7387": 679, "\u84dd\u8272": 2760, "\u7edd\u5927\u90e8\u5206": 1246, "\u5347\u503c": 1990, "\u4e0b\u5c5e\u5b50": 2761, "\u6218\u7565": 1492, "\u9530": 1757, "\u51b3": 2762, "\u5f00\u53d1\u8d39": 2430, "\u4e49\u52a1": 1493, "\u7535\u5382": 987, "\u76f8\u6bd4": 244, "\u4e2d\u90e8": 2808, "\u589e\u591a": 744, "\u6682\u884c": 2764, "\u5148": 2432, "\u5dee\u5f02": 902, "\u73af\u7403": 745, "\u83b7\u5229": 2437, "\u6838\u5fc3\u533a": 2767, "\u4e2d\u5317": 1248, "\u8bb8\u660c": 1476, "\u4fdd\u6301": 82, "\u524d\u8ff0": 1991, "\u5e38": 1494, "\u53d1\u8868": 2769, "\u8d8b\u52bf": 55, "\u7126\u70ad": 1249, "\u5e7f\u5dde": 559, "\u8bc1\u5238\u5316": 2770, "\u6b64": 1012, "\u6d41\u51fa\u91cf": 2771, "\u4fee\u6539": 2453, "\u5374": 2773, "\u5408\u4f5c\u65b9": 1495, "\u673a\u52a8\u8f66": 1992, "\u7a0e\u91d1": 1496, "\u571f\u5730\u6b3e": 2774, "\u5229\u6da6\u8868": 1993, "\u53d1\u884c": 17, "\u7533\u62a5": 2776, "\u589e\u5927": 817, "\u5370\u53d1": 2777, "\u52a0\u5267": 2778, "\u5236\u5ea6": 2779, "\u5f15\u8d77": 903, "\u4e0d": 147, "\u5230\u671f": 166, "\u4ee3\u507f": 1994, "\u65ed\u5510": 1250, "\u4ee3\u5efa\u7ba1\u7406\u8d39": 2780, "\u91cd\u8981": 680, "\u5185\u90e8": 2781, "\u4f9b\u6c34\u91cf": 2782, ")": 25, "\u63d0\u9ad8": 253, "\u540d\u4e49": 2783, "\u7ec4\u5efa": 2784, "\u8d1f\u8d23": 818, "\u7a33\u6b65": 454, "\u5409\u76db\u4f1f\u90a6": 1995, "\u4e8c\u5206\u4e4b\u4e00": 2785, "\u5355\u9879": 1996, "\u66f4\u52a0": 2786, "\u5747": 102, "\u70ad": 2787, "1-2": 904, "\u5f97\u76ca": 1013, "\u8425\u53e3": 1251, "\u6d0b\u6cb3": 1997, "\u6cf0\u5b89\u91d1\u9e9f": 2788, "\u4e2d\u539f": 1998, "\u6bdb\u5229": 746, "\u51c0\u989d": 211, "\u8c61": 1826, "\u5927\u9152\u5e97": 2000, "\u5f20\u5bb6\u53e3": 723, "\u91cd\u89c6": 2789, "\u76c8\u8fbe": 2001, "\u81ea\u6765\u6c34": 1252, "\u5229": 1384, "\u4e3b\u9500": 2790, "\u8c03\u67e5": 2238, "\u9999\u917f": 2002, "\u867d": 819, "\u5f81": 2791, "\u5e02\u4e2d\u5fc3": 2792, "\u5b9a\u4e49": 2793, "\u7a0e\u52a1": 2003, "\u65bd\u5de5": 142, "\u5229\u7528": 747, "\u6269\u5efa": 2794, "\u81ea\u7528": 1014, "\u2014": 2004, "\u987e\u95ee": 2795, "\u5c24\u5176": 2005, "\u6765\u8bf4": 2796, "\u591a": 145, "\u6807\u5fd7\u6027": 2007, "\u4e3b\u52a8": 1465, "\u4f9b\u4e0d\u5e94\u6c42": 2797, "\u56db\u5ddd\u7701": 1497, "\u4f9b\u6c34": 1254, "\u5851\u6599": 2008, "\u6089\u6570": 2798, "\u6cb3\u6d77": 1255, "\u64a4\u56de": 2009, "\u897f\u5b89": 2010, "\u4e91\u5546": 2011, "\u53d8\u73b0": 820, "\u56fd\u7f8e": 364, "\u5408\u8425": 682, "\u592a": 2012, "\u6863\u6b21": 2013, "\u8fde\u4e91\u6e2f": 673, "\u6d77\u95e8": 1498, "\u5bcc\u9633": 2014, "\u4eba\u4ea7": 2800, "\u56db": 371, "\u9910\u996e": 2015, "\u4fe1": 2016, "\u653f\u5e9c": 385, "\u5151\u4ed8": 1499, "\u72ec\u5bb6": 2801, "\u4f9b\u9700": 2802, "\u59d4\u5458\u4f1a": 2017, "\u5efa\u4e1a": 276, "\u519c\u5546\u884c": 2803, "\u4e0a\u671f": 683, "\u63a7\u5236\u6743": 1015, "\u4e0b": 400, "\u8d1f\u4e14": 2804, "\u8fd1\u4e9b\u5e74": 2514, "\u9500\u552e\u989d": 2018, "\u5c71\u5e84": 2806, "\u660e\u663e": 365, "\u53d8\u5316": 220, "\u622a\u6b62": 272, "\u73b0": 1594, "\u751f\u4ea7\u80fd\u529b": 2807, "\u56fd\u571f": 1887, "\u53cb\u8c0a": 821, "\u592a\u6e56": 1500, "\u5f62\u5f0f": 907, "\u4e0d\u5f97": 2061, "\u6765\u6e90\u4e8e": 372, "\u51fa\u79df": 636, "\u65ed\u9633": 2019, "\u5e02\u653f": 531, "\u516c\u53f8": 13, "\u96c6\u6210": 474, "\u8d35\u5dde\u7701": 2020, "\u6bdb\u7eba\u54c1": 2021, "\u63d0\u4f9b\u5546": 2809, "\u538b\u7f29": 1016, "\u51c6\u5907": 263, "\u5b59": 1501, "\u9ad8": 81, "\u6240\u6709\u6743": 2811, "\u4e09\u8005": 1502, "\u94dc": 2812, "\u7126\u5316": 2813, "\u4ee5\u5185": 230, "\u62e8": 2022, "\u81ea": 354, "\u8d70\u52bf": 1047, "\u6295\u8d44\u989d": 2814, "\u8d34\u606f": 2815, "\u591a\u5143\u5316": 1256, "\u543b\u5408": 2816, "\u5f00": 2817, "\u5904": 2024, "\u4e09\u671f": 2818, "\u300a": 435, "\u70ed\u7089": 2025, "\u72ec\u7acb": 1257, "\u79cd\u732a": 2026, "\u85aa\u916c": 1503, "\u4e3b\u8425\u4e1a\u52a1": 129, "\u9884\u7b97": 1017, "\u5bb9\u95f3": 2027, "\u5feb\u901f": 199, "EBITDA": 1219, "\u719f": 1505, "\u606f": 1606, "\u53d8\u52a8": 157, "\u53e6\u5916": 1506, "\u8ba2\u5355": 2820, "\u54c1\u8d28": 2029, "\u5c0f\u5e45": 436, "\u7f5a\u6ca1": 1258, "\u5730": 637, "\u8d2d\u4e70": 317, "\u901f\u5ea6": 638, "\u6536\u76ca\u7387": 1507, "\u9ec4\u5c71": 2030, "\u8d39\u7528": 153, "\u6b21\u6570": 2031, "\u8fd0\u8425": 502, "\u94dd": 1019, "\u6ee8\u5dde": 908, "\u6d41\u52a8\u6027": 639, "\u9a8c\u8bc1": 2821, "\u5546\u8d38": 599, "\u5feb": 264, "\u6bd4\u8f83\u6cd5": 2822, "\u503a\u6743": 1020, "\u5174": 2032, "\u8ba2\u91d1": 2823, "\u5168\u8d44": 2824, "\u5546\u54c1\u7ecf\u8425": 2825, "\u79ef\u6781": 1021, "\u591a\u6b21": 2033, "\u80fd\u5426": 2826, "\u4e2d\u91d1": 1259, "\u9171\u9999\u578b": 2034, "\u5206\u6bd4": 2578, "\u4e34\u65f6\u6027": 2827, "\u5229\u534e\u4f73": 2041, "\u534f\u4f1a": 2828, "\u9f0e\u68ee": 2829, "\u4e2a\u4eba\u6240\u6709": 2830, "\u5b9e\u8d28\u6027": 1611, "\u80a1\u4efd\u5236": 2831, "\u7814\u7a76": 2037, "\u623f\u5c4b": 217, "\u59b9\u5b50": 1260, "\u6027\u8d28": 2832, "\u9f99\u5934": 2833, "\u6d77": 2043, "\u96be\u5173": 2038, "\u519c\u4e1a": 748, "\u8dcc": 2834, "\u5f00\u62d3": 1022, "\u4eca\u540e": 2835, "3\u6708": 2039, "\u6c61\u6c34": 2836, "\u7acb\u9879": 2324, "\u51c0\u5229\u6da6": 63, "\u8463\u4e8b": 1018, "\u6b63": 1023, "\u5317\u9762": 2040, "\u4fe1\u8a89": 2839, "\u90e8\u95e8": 909, "\u94c1\u8def": 195, "\u6570\u8baf": 1772, "\u4f20\u5a92": 2042, "\u5373": 1024, "\u8d77": 1261, "\u52b3\u52a1": 640}}